{"type": "bpe", "tokens": ["<pad>", "<bos>", "<user>", "<assistant>", "<end>", "<memory>", "<unknown>", "\n", " ", "!", "\"", "#", "$", "%", "&", "'", "(", ")", "*", "+", ",", "-", ".", "/", "0", "1", "2", "3", "4", "5", "6", "7", "8", "9", ":", ";", "<", "=", ">", "?", "A", "B", "C", "D", "E", "F", "G", "H", "I", "J", "K", "L", "M", "N", "O", "P", "Q", "R", "S", "T", "U", "V", "W", "X", "Y", "Z", "[", "\\", "]", "_", "a", "b", "c", "d", "e", "f", "g", "h", "i", "j", "k", "l", "m", "n", "o", "p", "q", "r", "s", "t", "u", "v", "w", "x", "y", "z", "{", "|", "}", "§", "©", "«", "­", "°", "±", "²", "³", "»", "¼", "½", "×", "à", "ä", "æ", "é", "í", "ð", "ü", "ė", "Š", "š", "ū", "́", "Ι", "Χ", "ή", "γ", "λ", "ο", "ς", "σ", "χ", "ω", "ό", "Ё", "І", "А", "Б", "В", "Г", "Д", "Е", "Ж", "З", "И", "Й", "К", "Л", "М", "Н", "О", "П", "Р", "С", "Т", "У", "Ф", "Х", "Ц", "Ч", "Ш", "Щ", "Ъ", "Ы", "Ь", "Э", "Ю", "Я", "а", "б", "в", "г", "д", "е", "ж", "з", "и", "й", "к", "л", "м", "н", "о", "п", "р", "с", "т", "у", "ф", "х", "ц", "ч", "ш", "щ", "ъ", "ы", "ь", "э", "ю", "я", "ё", "і", "ї", "ѣ", "ѧ", "ѩ", "‑", "–", "—", "―", "’", "“", "„", "†", "•", "…", "₁", "₂", "€", "№", "⅔", "⅛", "→", "−", "ст", " п", " в", "ен", "ов", "ра", " с", "но", " и", "на", "ко", "го", "ре", " о", "ли", "ро", "ны", "ни", "ль", "ри", "да", "ка", " по", "то", "ла", " на", "ки", "ени", "те", " д", "ми", "ств", "ло", "не", "ти", "та", " б", "ле", "за", "ер", "ци", "ско", " 1", " м", "че", " С", "ски", "ру", " со", "ова", "во", "ва", " у", " во", "ет", " к", " ко", "ста", " В", "ди", "ся", " а", "ви", " (", " ра", "си", "ча", "сти", "ма", " го", "ля", " за", " не", " об", "ных", "по", " про", "ем", "де", "сь", " 19", "ной", " П", " бы", "чи", " от", "ения", "сто", "ть", "ду", " при", " г", "ные", " Р", " «", "хо", " К", " ре", "ей", "ос", "тель", "сть", "мо", "нов", "ного", " э", " до", "ение", "ги", "ши", "ор", "ской", " ф", "же", " ка", "ме", "ры", "ты", "ве", " из", "ска", "се", " пре", "бо", "па", "ря", "ров", "мен", "ту", "ну", "ня", "га", "ный", " 2", " вы", "ков", "ствен", "ере", " А", " з", "ции", " Г", "ев", "са", " Н", " М", "пе", "ского", "ку", " раз", "ния", "ства", "ще", "ский", "лов", " то", "щи", "жи", "су", "до", "лен", " те", "лю", "му", "ство", " вой", " ме", "ар", "ная", "стра", "пи", "года", " е", " ч", "об", " под", "осси", "дар", "СР", "лу", " де", "ских", "ская", " Б", " т", "мы", "зи", "ным", " Росси", " бо", "рова", " О", " та", "цио", "ние", "ские", " Д", "гра", "сле", " кото", "лись", "аль", "тов", " ми", "ное", " пере", " че", " ма", "ют", " пра", "ше", " ста", " я", " мо", "ности", "ССР", " ц", "ан", " Л", "ность", "овет", "вы", " ли", "пу", " кон", " СССР", " года", "00", "род", " что", "ления", "ён", "со", "тив", " пред", "спо", "ек", "жа", "зы", "вля", " И", " Т", " ар", "судар", " ос", "ке", "ды", " ча", " государ", " ру", " си", "ется", "ур", "сту", "ция", "лось", "дов", " это", "раз", "би", "стро", "фи", "вши", "кт", " нача", "ба", " сво", " ин", " так", "ном", "рии", "тер", "году", "сси", "тиче", " ве", " как", "19", "нии", "дан", " были", " По", " зем", " стра", " России", " но", "ян", "ент", " для", "пре", "ную", "лся", "лав", "пра", " кре", "гов", "циаль", "стви", "ющи", "ении", "лы", " ро", "лась", "ными", "ща", " З", "нд", "бе", "про", "кра", " рас", " су", "ление", " Ф", "ой", "ходи", "он", "из", " было", " был", " 20", "яб", " ле", "ское", " им", "од", " соста", " воз", "ран", "ца", " которы", "ша", "коно", " вре", " все", "II", " са", "логи", " вла", "ель", "вер", "жд", " Е", "руп", " 18", "ха", " дру", "ений", "бы", "раж", "рия", " На", " бе", " хо", "рон", " У", " 3", "ерма", "гла", " пер", "гу", "мя", "пера", "зу", " сто", " 194", " после", "ин", "сов", " од", "раль", " боль", "сте", "вя", "зна", "ред", " поли", " тер", " ни", "лее", " Ка", "ней", "зя", " обще", "витель", " ор", "дер", "ству", " была", " воен", " также", "хи", "мер", "ск", "це", " Во", "ром", " 191", "фор", "ене", " совет", "лек", "ена", " же", " арми", "ствова", "ены", " рабо", "бли", " жи", "каза", "рито", "ению", " чи", "кономи", " исто", "ску", "пад", " ш", "зда", "бур", "стоя", " X", "лн", "лож", "жду", " образ", "лько", " 4", " орга", "прав", " челов", "ых", " 17", " произ", " па", "ове", "лей", " Со", " террито", "ским", "волю", " войны", " или", "станов", " да", " социаль", " горо", " насе", "ением", "ника", "тия", " ди", " зна", "ит", "нима", " Э", " правитель", " Пет", "ября", "ются", " пе", "вед", "кон", "ход", "ремен", " его", "зыва", "спе", " объ", "цион", "али", "пы", "зова", " дво", "нг", " Совет", " между", "тербур", " войска", " ию", "ень", "тий", "ться", "циона", " 192", "кой", " экономи", "ступ", " 199", " дей", " кресть", " Ру", " ку", "ском", " За", " се", "она", "  ", " 5", " соб", " основ", " государствен", "вод", " их", "ом", " кня", " рус", "ак", "цы", "чё", "етербур", "тор", " други", " пол", "рас", "ые", " ав", "тся", " году", "сы", "том", " 201", "цию", " уча", "дин", " револю", " фор", "рь", " Герма", " пров", " время", "дова", "при", " полу", " име", " ба", "ву", " пу", "лови", "руж", " нов", "юз", " свя", "ний", "ников", " ты", " ком", " явля", "ник", "оль", "рой", "три", "стре", " Ч", "ено", "ком", " ви", " дол", "ели", "скую", " вос", " испо", "клю", " более", " приня", "спу", " Алек", " Ц", " отно", " разви", " фрон", " созда", "зва", " сов", "от", "сточ", " Ки", " пла", "зяй", " груп", " 198", " образова", "ге", " 200", "тери", "ники", "тр", " 6", " вс", "осу", "им", "стве", " ю", " пар", "вет", " ва", " человек", "ством", "тельно", " города", " против", "анкт", " х", "каз", "низа", "йской", "нова", "хов", "чита", " 9", " При", " населения", "Петербур", "ём", " само", "кола", "коло", "льта", "ман", " 190", " Ми", "мон", "тур", " слу", " ис", " мар", " язы", " Бе", "гда", "евер", "вро", "раждан", "стран", " 8", " только", "дей", "дом", "лия", "спубли", "ких", "торы", "ческих", "дель", "ую", " Ни", " обла", "каб", "санд", "зд", " суще", " её", "зульта", "кры", "осудар", "рани", " власти", " част", "сса", " Санкт", "ческие", " Петро", " нау", "реб", "сты", " территории", "кан", " ок", "лом", "рак", " 7", "оруж", "реди", "рез", "циональ", "льзова", " армии", " крестьян", "нее", "ого", " декаб", "рован", "соб", " обо", " политиче", " результа", "ному", " лет", "вших", "преде", " пери", "нако", "уз", " ти", "стру", "шей", " социо", "вой", "тора", " Мос", "шения", " действи", " предста", "ций", " Александ", " сло", "ден", " неме", " больше", " истори", " счита", "телей", " часть", " Ю", " оста", "нист", "чение", "ческой", " Х", " сред", "вшие", "сла", "писа", " I", "виси", "мыш", " которые", " цент", " дан", " Вели", "кре", " лю", " состоя", "20", "строй", " II", " глав", " том", "зма", "мени", "слен", "тро", "яви", " страны", "млн", "тии", " Евро", "год", "следова", "щё", "По", "енера", "лага", "мож", "мышлен", "ряд", " Государ", "кого", " около", "нк", "тин", " пло", "17", "нию", "стов", "шение", " государства", " части", "лич", "ссий", "цев", "ющих", " коми", " хозяй", "прия", " Я", " Ко", " куль", "зан", "лли", " импера", " мамон", " организа", "ях", "ститу", " без", "нва", " сторо", "На", " ак", " народ", " рефор", "енно", "ностью", " спо", " мас", " вер", " круп", " 193", " пи", " первы", "ственной", " составля", " тыся", " эти", "бер", "град", "нич", " Ма", " жиз", " эк", " янва", " долж", " немец", " согла", " тру", " фи", "18", "виж", "шая", "щей", " ду", "рав", " 10", " город", " ус", "тали", "которы", "чно", " Никола", "хва", " собствен", "оз", " СН", " войск", " уч", "бор", "ему", "зм", "тя", "чь", " значи", "рев", " промышлен", "ках", "лова", " всех", " которо", " тор", "кие", "личе", "циали", "ших", " Российской", " кор", "струк", " импе", "нием", "поли", "ёр", " Лит", " генера", " двор", " находи", "пол", "еде", "скому", "ческого", " пов", " полити", "кла", "личи", "скими", " Германии", " земле", " уже", "говор", " Та", " кла", " сель", "тыс", " окт", " офи", "ис", "лё", "ющие", " ж", " стро", " декабря", " миров", "нди", "пер", " опера", "таль", " Ш", " Па", " ещё", " производ", " через", "бу", "жда", "лез", " Си", " Укра", " республи", "дол", "оди", "осле", " 1941", " направ", "него", " площа", " фев", "един", "нами", "шли", " союз", "чения", " 1917", " Ар", " СНГ", " крепо", " этом", "вший", " Ре", " апре", " сент", " свои", " опреде", "вра", "держа", "рита", "шего", " распо", "ал", "сно", "ходя", " века", " является", "туры", " Моск", " архи", " использова", " результате", " фу", "дь", "сли", "тие", " бу", " вклю", " граждан", " июня", " марта", "зависи", "лиза", "стан", "фе", " Не", " место", " тысяч", "мирова", " власть", " которых", " период", " призна", " рай", " ха", " 12", " Крас", " исследова", " некоторы", " торгов", " член", "цен", " земли", " руков", "ждения", "ёл", " кра", " общи", " уров", "енин", "лении", "тели", " революции", "логии", "народ", "тей", "тура", " большеви", " капи", " он", " сист", " февра", "оне", "седа", " Ра", " неско", " чем", "лён", " авгу", " вопро", "кий", "ссии", " 15", " грани", " гу", " дея", " мая", " них", "грам", "ступа", "ческий", "ый", " теле", "вали", "тек", "теля", "ческая", " Север", "дми", "итель", " Поль", " вне", " дости", "ат", "вая", "графи", "ео", "лади", " Сове", " земель", " получи", "шин", " расс", "манд", "оружён", "сс", " годов", " над", "вать", "емо", "твер", "ями", " право", " этого", "них", " возмож", " мест", " обе", " продол", "вор", "мери", "рт", " Вер", " назва", " свобо", "лда", "стей", " вну", " мож", " существова", " участ", " января", "вобо", "води", " Кон", " других", " мно", " называ", " це", "ками", "рус", "цией", " Украи", " ост", " тем", "влен", "ед", "ибо", "ответ", "фер", "щего", " Пер", " другие", " кри", " оборо", " откры", " сле", " стран", " того", "орь", "степ", " Ви", " ан", " авто", " конце", "слав", "тера", " Россия", " инте", " который", " осу", " основа", " послед", " челове", "нь", "рабо", " харак", "кова", "торой", "ым", " количе", " правительства", " числе", "матри", "оло", "цу", "чен", " Од", " заня", " переда", " учре", "мости", "рий", " Бело", " му", " стали", " тех", "вест", "нах", "нитель", "ственно", " занима", " националь", "ово", " движ", " сере", "висти", "вые", "пас", "ющий", " Времен", " гла", " дву", " мона", " они", " однако", " фа", "дини", "зе", "лением", "щения", " ши", " деятель", " империи", " начале", " рабочи", " спе", " сентября", " современ", "зер", "ладими", " ки", " Все", " мор", " общества", " руб", " управ", "ребова", " Ли", " минист", " ноября", " услови", "ерман", "льно", "тами", " Ду", " ино", " систем", " установ", " функ", "Петербург", "дук", "лле", " россий", "гро", "дели", "кая", " захва", " наступ", " состави", " стороны", " цер", "Со", "рта", " XI", "зии", "ким", "нистра", " 1991", " апреля", " война", " прав", " соответ", " сох", " состав", " фло", "форма", "ществ", "ъе", " 1918", " запад", " иде", " лиш", "ФСР", "дела", "тных", "тра", " 11", " Се", " жизни", " июля", " крестья", " фак", "зь", "шие", " Верхов", " Запад", " августа", " га", " где", " предприя", " различ", "ственного", "трен", " Бо", " борь", " полож", "кви", "лений", "щая", " РС", " включа", " измен", " помо", " проис", "лем", "ствии", "тки", "тически", " восста", " годы", " комму", " мире", " независи", " оказа", " перво", " правительство", "жива", "смо", "ственных", " Фин", " когда", " окру", " тра", " уда", " эта", "ША", "иболее", "матрива", "шее", " 14", " ССР", " Совета", " высо", " зда", " княже", " поддер", " проек", " тео", "конча", "тно", "тиво", " США", " международ", " подписа", " цар", "ним", "ое", "ступи", "чных", " 13", " Ва", " Са", " вели", " ради", "едера", "зов", "мент", "образ", " Ста", " влия", " обра", " октября", " февраля", "III", "вказ", "онов", "пей", " Восточ", " всего", " годах", " обеспе", " поз", " права", " фронта", "Во", "воз", "пов", "рая", "слу", " РСФСР", " каче", " мн", "За", "бой", "готов", "след", "шта", " Вы", " линг", "000", "жение", "кси", "чей", " Так", " губер", " извест", " поме", " ходе", "гие", "меча", "рё", "ствие", " Рус", " Руси", " мог", " способ", "креп", "пла", "ственные", "чин", "щее", " XX", " Миха", " анг", " заклю", " комите", " противо", " широ", "века", "мой", " струк", " Владими", " Ленин", " желез", " массов", " начала", " необ", " освобо", " отнош", "21", "пута", "тыва", " До", " Фран", " деся", " доро", " законо", " много", " мировой", " области", " руковод", " сем", "тем", " лишь", " несколько", " полови", " пот", "тру", "ющей", " внутрен", " продук", " распро", "вшей", "пример", "снов", "ческое", " Ку", " Про", " есть", " конф", " оконча", " особ", " прекра", " социали", "вшая", "вар", "дет", "ич", "роме", "цов", "ябрь", " После", " архитек", " времен", " день", " значитель", " которая", " силы", " собы", " това", "лирова", "ске", "чной", " н", " би", " вооружён", " поч", " приве", " числен", " этот", "деля", "еров", "льные", "мина", "мых", "той", "чива", " вза", " войне", " времени", " команд", " лингвисти", " ору", "нам", "нией", "няя", " Это", " два", " депута", " изда", " контро", " уве", " шко", "бя", "вен", "гово", "йд", "нем", "рию", "сут", " зако", " каза", " обя", " объя", " требова", "ложи", "пло", "хода", "щих", " 196", " иностран", " мира", " огра", " площади", " случа", " солда", " три", "12", "бле", "кам", "стана", " Ан", " Киев", " Петрогра", " бан", " год", " дере", " осуществ", " провед", "вич", "логия", " 30", " др", " данным", " истории", " кур", " милли", " официаль", " постро", " реги", " тран", "нача", "овая", "став", "теги", " лав", " 197", " Нев", " муз", " пода", " представи", " програм", " сек", " утвер", "дения", " Мо", " военно", " выс", " образования", " поль", " проце", " сооб", " тре", "Петербурга", "казыва", "лива", "ёт", " —", " 16", " 25", " голо", " кни", " необходи", " отдель", " побе", " произо", " середи", " участи", "10", "мость", "ню", "рёх", "ственный", "чеб", " ту", " Финля", " Цент", " партии", "22", "мет", "рд", "стри", "шую", " Боль", " Велико", " введ", " герман", " государств", " которой", " мамонтов", " себя", " юж", "гор", "жения", "льный", "манду", "юза", " Ж", " сти", " армия", " вме", " корпу", "15", "бира", "гром", "город", "годах", "его", "мов", "мерикан", "нераль", "никами", "рхи", "стема", "ферен", " Об", " бла", " быть", " конфли", " роль", " стату", " успе", " цен", "При", "гом", "ждение", "сло", "ходит", "шим", "щение", " 1905", " Однако", " интер", " кол", " командова", " которого", " продолжа", " стал", "датель", "оны", "ствия", "тых", " Зим", " адми", " гра", " группы", " крас", " крепости", " культур", " собра", " советских", "ева", "цуз", " №", " XV", " Глав", " всё", " закон", " рабочих", "зем", "лин", "нци", "рец", " ря", " древ", " двух", " действия", " затем", " источ", " мир", " развития", "кое", "лича", "над", " Союз", " дворца", " прак", " север", " среди", "194", "вшего", "дами", "лению", "тные", "ший", "ющим", "яти", " ряд", " Бал", " встре", " военных", " возник", " даль", " договор", " связи", " столи", " тыс", " шта", "Ка", "СС", "ил", "лон", "ляр", "номо", "тар", "тирова", "ья", " Литвы", " Федера", " актив", " предпо", " системы", "вались", "гласно", "жен", "лены", "ябре", " ло", " 1920", " XIX", " генерал", " неу", " основе", " присо", " сос", " социальных", " уси", " формирова", " хозяйства", " этих", "зации", "кта", "поль", "рал", "рот", "сом", "ствует", "тили", " Су", " Сиби", " группа", " дерев", " начи", " организации", " производства", " смер", " стратеги", " эле", "Ра", "брита", "веро", "доб", "ющего", " Пре", " внеш", " восточ", " институ", " оп", " одной", " строитель", " уби", "30", "бора", "вёр", "гг", "дина", "дия", "доволь", "мят", "ражение", "тах", "шла", " Ива", " государство", " живо", " оцен", " отношения", " первый", " советские", "11", "десь", "имо", "кин", "лет", "там", "туа", " ев", " 1990", " Великобрита", " КП", " Финлянди", " изу", " креди", " мето", " ох", " прави", " революцион", " сил", " упо", "виа", "деми", "меня", "ниче", "тен", " ры", " Из", " каж", " коммуни", " назна", " нем", " рассматрива", " реформы", " тан", "емокра", "рей", "тече", " ст", " Красной", " Ро", " Республи", " басти", " большин", " взя", " важ", " даже", " интере", " может", " наиболее", " начало", " показа", " промышленности", " решение", " своих", " стала", " этой", "едини", "нской", "ствовали", "тан", "циа", "шёл", " стре", " 22", " Ме", " Петроград", " Свя", " восстанов", " депутатов", " еди", " рез", " система", " фран", "190", "дение", "лиги", "льных", "тором", "цей", " Петербур", " Централь", " государственной", " зада", " людей", " наступление", " пря", " перед", " позво", " прези", " своей", " следу", " станов", " человека", "Об", "гре", "или", "лена", "мест", "ован", "тельное", "того", "точ", "фика", " Александров", " Бу", " ги", " действий", " князя", " некоторых", " нор", " поддерж", "бачё", "визи", "здан", "йти", "сред", "фа", " Белору", " Ла", " второй", " войну", " имен", " литера", " мене", " матери", " пси", " подготов", " русской", " свобод", "байд", "емых", "зербайд", "км", "нан", "нерус", "рен", "фици", "ят", " Граждан", " Украины", " бло", " городе", " объедин", " окку", " предо", " распростран", " содержа", " сокра", " тради", " транспо", " учи", " хотя", " чтобы", "199", "лан", "мом", "первые", "шло", "щие", "ью", " ла", " 1940", " ана", " анти", " выну", " инди", " мы", " непо", " один", " остров", " учё", "влов", "грар", "ержа", "кадеми", "низ", "правля", "рек", "тельные", "тить", "шен", "ье", " Европе", " Европы", " КПСС", " Пра", " Петра", " менее", " ней", " она", " обу", " проводи", "14", "боль", "ить", "йская", "нского", "озгла", "против", "ропей", "ственная", "хозяй", "цами", " 195", " Ба", " законодатель", " ито", " информа", " почти", " принима", " режи", " религи", " служ", " собой", " советской", " стало", " учеб", "вии", "нес", " 1906", " Го", " Николая", " взаимо", " военного", " заво", " оче", " отмеча", " председа", " пример", " разме", " удалось", " цель", "Росси", "ген", "льной", "ологи", "ционали", "чу", " Гор", " Кры", " Союза", " Япо", " бес", " вод", " земля", " образом", " офиц", " пове", " поги", " попы", " рам", " работы", " создан", " солдат", " стране", " тя", " учрежд", " ху", " церков", "муще", "ража", "склю", "чёт", " 0", " Кавказ", " защи", " император", " некоторые", " обяза", " осуществля", " положение", " помощ", " принци", " провозгла", " рав", " ран", " сове", " социальной", " фронт", " чер", " чу", "еры", "лки", "нер", "рами", "ённых", " ри", " Ин", " достиг", " друго", " землеу", " мень", " мнению", " монасты", " появи", " полностью", " предприятий", " прод", " производи", " работ", " съе", " сы", " укреп", " экономики", "16", "После", "вшихся", "их", "нивер", "ристи", "см", "тилле", "шед", " степ", " 1942", " Каза", " Северной", " То", " ЦК", " бю", " дела", " доку", " индиви", " комп", " крупней", " многие", " низ", " объяви", " первой", " форма", " характер", " являются", "беж", "лий", "лизации", "лых", "льная", "ографи", "прави", "ступления", "тря", "тельного", "ям", " Москов", " Москве", " аграр", " администра", " большевиков", " дальней", " качестве", " название", " пара", " перево", " политической", " помещи", " пробле", " развитие", " трёх", "ича", "льного", "нев", "нирова", "рения", "ражения", "тая", "тет", "тельных", "тика", "числен", "шой", " 1919", " 28", " XVIII", " Федерации", " всей", " дел", " князь", " начали", " обы", " пози", " принял", " сфор", " свою", "дент", "зо", "куль", "ником", "тики", "торов", "ху", "чные", "чай", "явля", " 1939", " 23", " Арм", " Германией", " Петрограде", " армий", " исклю", " количество", " органи", " отсут", " ситуа", "Не", "Па", "бро", "куп", "льное", "мб", "мента", "мые", "нская", "нский", "ок", "ременно", "скус", "стой", "чного", "ческом", " 189", " 1945", " Нов", " Тур", " Чер", " завер", " кам", " меся", " музе", " ответ", " охра", " площадь", " постанов", " располага", "13", "вления", "итле", "катери", "сколь", "спек", "сток", "труд", "ьё", "ющ", " ―", " 186", " 1943", " Кре", " коллек", " котором", " можно", " нас", " оружи", " отказа", " отре", " позд", " предпри", " представля", " реаль", " своего", " стан", " управления", " условиях", " членов", "КА", "вла", "дах", "едераль", "ектив", "нет", "писи", "полн", "слов", "совет", "това", "тай", " /", " 50", " Васи", " Германия", " Екатери", " выбор", " запре", " начина", " общего", " определя", " получа", " реш", " собственности", " тот", "вшее", "вшиеся", "евраль", "ила", "мин", "пада", "стави", "тическая", "тому", "ческую", " Бы", " Государственной", " Для", " Николай", " Пере", " Юж", " бра", " вынужд", " дворец", " культуры", " относи", " поте", " продоволь", " разде", " середине", " специаль", " экс", "вести", "зей", "лой", "сад", "ственным", "ствуют", "фф", "ходят", "чный", " Вол", " Крон", " От", " Отече", " вызва", " глу", " гру", " городов", " деятельность", " кризи", " причи", " сдела", " социологии", " указ", " универ", " финан", "дор", "зад", "зован", "лима", "надле", "ностей", "новременно", "тной", "тяж", "фри", "ходов", " 1922", " Ве", " Временного", " впервые", " деятельности", " либо", " общ", " памят", " профе", " ранее", " реали", " сим", " состава", " увеличи", " француз", " чел", "25", "бал", "выше", "годов", "лами", "рода", "ссов", "цкий", "ческим", "шу", " Алексе", " Да", " Конститу", " Пу", " военной", " главе", " капитали", " наб", " население", " партий", " потери", " прибы", " рублей", " ско", " слав", " угро", " указа", " худо", " частей", "23", "Ми", "ведения", "лрд", "лина", "льзу", "менты", "опера", "образова", "рази", "рож", "рок", "сова", " 26", " Верховного", " Сто", " авиа", " дем", " если", " зависи", " искус", " концу", " огром", " операции", " острова", " отношений", " перио", " поряд", " рамках", " регу", " согласно", " составе", " составил", " социальные", " танков", " течение", " централь", "an", "er", "говора", "енные", "жан", "млрд", "скольку", "щён", "ющая", " :", " род", " Гитле", " Лат", " Польши", " Че", " артилле", " демокра", " движение", " использу", " конца", " назад", " нео", " погиб", " политика", " принадле", " пути", " территорию", " целью", "40", "Ли", "гей", "жде", "мая", "мир", "смотря", "стоян", "стройки", "тические", "чески", "ыми", " Гражданской", " Дон", " Но", " Ор", " Основ", " РК", " Также", " аре", " боев", " вопрос", " государственных", " дивизи", " допол", " жен", " здесь", " месте", " настоя", " образование", " операция", " пы", " попу", " пост", " поэ", " революция", " русских", " слова", " стать", " труд", " учреждения", " часто", "198", "вшим", "ереж", "клад", "команду", "личие", "рета", "рованных", "руже", "туре", "ус", "цкого", "ционные", "шем", "шеви", " ,", " 100", " Ав", " Александр", " Западной", " Литов", " Эсто", " американ", " брита", " генерала", " две", " держа", " ини", " каждо", " которое", " край", " началась", " немецких", " предлож", " прода", " республик", " сер", " срав", " труда", " четы", " язык", " языка", "on", "емые", "енный", "лыпи", "пози", "разд", "рота", "собо", "тальян", "тиви", "ток", "торо", "чная", " ему", " 1944", " 27", " Восточной", " Сибири", " имели", " мета", " одно", " округа", " русского", " сни", " слонов", " совер", " территория", " частности", "вление", "зирова", "одруже", "павлов", "послед", "рит", "ственное", "тного", "цени", "шими", " ша", " 24", " Ха", " варя", " войсками", " императора", " исследования", " куро", " например", " недо", " немецкие", " новой", " общество", " политики", " пут", " работа", " разре", " руководи", " случае", " сопротив", " социалисти", " странах", " тяж", " фин", " языков", "50", "Ко", "евич", "ез", "лые", "мена", "нские", "плоть", "риан", "тических", "ходили", "чением", "чер", "шки", "ятся", " 183", " 40", " Азербайд", " Белоруссии", " Дне", " Им", " Стали", " Февраль", " бли", " вз", " дворя", " изуча", " испол", " коопера", " литов", " мамонта", " министер", " министров", " началось", " определён", " протяж", " различных", " школы", "док", "кс", "мень", "мым", "нные", "празд", "рую", "чены", "щен", " 1989", " Александра", " Ге", " Кроме", " Русь", " Согласно", " Советского", " взаимодей", " возра", " гор", " золо", " запа", " капиту", " ликви", " началь", " непосред", " охо", " огранич", " посе", " принято", " проекту", " расши", " располож", " своё", " сельского", " событий", " федераль", " хле", " целом", " школа", "жу", "кру", "ничто", "пар", "рам", "риаль", "россий", "сия", "ётся", " 21", " Балтий", " Горбачё", " Древ", " Ленинград", " Минист", " Пред", " Прези", " Содруже", " Цар", " Юго", " буду", " втор", " вес", " гар", " государством", " десятин", " жизнь", " изменения", " клима", " крупных", " могли", " наци", " народных", " несколь", " постеп", " постоян", " привело", " производство", " распоря", " республики", " росси", " смо", " сам", " свой", " составляет", " торговли", " функции", "28", "МВ", "Ма", "вает", "вия", "енг", "ктябрь", "лга", "лии", "лит", "лог", "мии", "мор", "нных", "пасности", "рах", "разу", "ставля", "стория", "тка", "тельной", " Второй", " Гру", " Ио", " Мар", " Петропавлов", " Правитель", " Финляндии", " Франции", " видов", " внутренних", " демон", " дирек", " корпуса", " минераль", " находится", " одним", " офицеров", " очеред", " преду", " предполага", " примерно", " радио", " различные", " смы", " связан", " универси", "24", "26", "вом", "гранич", "дви", "енного", "зия", "лено", "луч", "нокоманду", "ност", "оби", "тельность", " ну", " 1921", " 1988", " 60", " Двор", " Коми", " Литве", " академи", " вместе", " государственного", " должны", " заседа", " землю", " лето", " основном", " писа", " повы", " половине", " предприятия", " свыше", " связыва", " точ", " уничто", "вую", "вых", "гна", "евский", "етро", "ниях", "последствии", "рение", "тный", "телем", "тельный", " 2015", " Великобритании", " КМВ", " Сер", " Сред", " Среди", " Ча", " благо", " вплоть", " вра", " волн", " выпу", " думы", " европей", " каз", " кана", " кампа", " класси", " кора", " могу", " моло", " находя", " независимости", " обороны", " поскольку", " путь", " раза", " счёт", " теории", " фактически", " церкви", "us", "бов", "вал", "гля", "дмирал", "нин", "союз", "способ", "стров", "цент", "чества", " 1924", " 1987", " 2016", " Василь", " Верховный", " Ле", " бое", " всеоб", " выше", " гео", " един", " заяви", " итальян", " класса", " контроль", " лингвистика", " меди", " места", " наук", " организаций", " разру", " реши", " региона", " связа", " совмест", " советского", " соответствии", " социального", " уровень", " характери", " художе", " чинов", " число", " япо", "200", "Ку", "Су", "бра", "гии", "дии", "евского", "енский", "кую", "лк", "лега", "ляции", "роприя", "тре", "тельная", "тием", "тивные", "хе", "штад", "щении", "ённые", " Амери", " Анд", " Кав", " Советской", " бастиона", " блока", " воин", " военные", " избира", " км", " коло", " направления", " новые", " первые", " присоедини", " продолжи", " рост", " сви", " слов", " слож", " создании", " титу", " упразд", " флот", " центра", " чего", " эфф", "27", "Пер", "Про", "вался", "вания", "возмож", "душ", "енных", "етров", "кло", "кими", "кома", "мар", "нец", "пара", "руется", "рыв", "сии", "ссиона", "тего", "тического", "фициаль", "цам", " 1907", " 2010", " Бер", " Га", " Как", " Казах", " Он", " Тро", " бед", " вступи", " выделя", " дене", " домо", " древнерус", " другой", " значительно", " кар", " конфлик", " которым", " млн", " мероприя", " наступа", " объяс", " отде", " правительством", " разно", " реформа", " славян", " сохрани", " суб", "арь", "бан", "вается", "ваться", "вос", "гам", "гих", "деб", "зян", "лый", "мпи", "нга", "нодо", "обо", "роволь", "рует", "стори", "тех", "тельства", "тые", "урна", "юр", " V", " 176", " Октябрь", " Румы", " Содружества", " век", " встреча", " выде", " гре", " гарниз", " дня", " действу", " дополнитель", " духов", " едини", " здание", " императри", " инициа", " иностранных", " командованием", " конститу", " мало", " моря", " направлен", " независимость", " нескольких", " новых", " описа", " пяти", " помощь", " престо", " приходи", " простран", " разрабо", " самостоя", " симво", " собор", " события", " сторон", " сформирова", " центр", " численности", " элект", " юго", "Бе", "Запад", "арди", "вели", "ган", "гия", "длен", "дра", "дам", "запад", "знача", "лев", "ствовало", "строитель", "тию", "тый", "ходы", "чил", "ёв", " =", " 180", " 188", " Владимир", " Гу", " Де", " Думы", " Нача", " англо", " вся", " виде", " влияние", " выска", " государственный", " движения", " допу", " коали", " люди", " многочислен", " область", " организация", " основные", " поражение", " противника", " религиоз", " спи", " сохран", " социологи", " устрой", " штаба", "Петербурге", "вое", "дро", "езд", "енераль", "ермах", "имен", "нику", "новения", "одзян", "пор", "редо", " ци", " 29", " Великой", " Михаил", " Москву", " НЭ", " всю", " городах", " дом", " здания", " имеет", " лиц", " мя", " музы", " наблю", " неф", " оккупи", " особенно", " пись", " пользова", " понима", " политических", " президен", " северо", " сотруд", " тек", " типо", " экономического", "бран", "вов", "вый", "днев", "дий", "доров", "кандина", "лях", "мира", "нодорож", "обще", "одзянко", "пли", "рю", "раня", "риа", "стер", "стской", "ствовала", "ционных", "чреди", "чить", " л", " хи", " 187", " 1914", " 1916", " XII", " Кол", " Петербург", " Россию", " Съе", " бере", " безо", " бюд", " возможность", " восстания", " выступа", " доста", " журна", " имени", " историографи", " катего", " коман", " комитет", " которому", " крестьянам", " лич", " момент", " народов", " него", " ори", " останов", " облада", " одного", " окончательно", " пос", " потер", " позволя", " профессиона", " района", " решения", " собственность", " такие", " типа", " тяжё", " утра", " уровня", " участников", " фронте", " числа", " численность", " экспе", " этим", " этому", "До", "валась", "годаря", "имуще", "ковский", "лект", "номочи", "пров", "ператор", "ровать", "слова", "скохозяй", "ссия", "тельности", "телями", "тина", "чении", "чем", "читыва", "щена", "ьёз", " ше", " 170", " 1985", " 2011", " 2017", " III", " Адмирал", " Ленингра", " Под", " РФ", " армию", " большинство", " будет", " включая", " дис", " значение", " камен", " контр", " мел", " напад", " наступления", " нерав", " обсу", " оборонитель", " отве", " отлича", " отмен", " периода", " поя", " помещичь", " потреб", " представителей", " причин", " продукции", " свер", " сме", " свободы", " себе", " смерти", " статус", " телеграм", " учили", " фла", " флота", " частью", " эпо", " эс", "en", "Ки", "береж", "влива", "ведений", "еди", "жида", "йский", "лета", "льным", "рет", "ристиан", "сылки", "тил", "фикации", "чень", "чего", "щание", " 2008", " 70", " ВВ", " Иванов", " Ти", " Февральской", " бога", " вариан", " весь", " вооруж", " выбора", " главнокоманду", " готов", " дружи", " землевла", " капита", " космо", " крепост", " невозмож", " опу", " освобожд", " отря", " подоб", " практически", " приоб", " психо", " реки", " свиде", " сельскохозяй", " серьёз", " сооруж", " строительство", " там", " телеви", " тол", " учреждений", " фаса", " финансов", " формы", " ца", " экономической", "or", "Основ", "бю", "бликова", "вшейся", "вшийся", "вым", "дустри", "енной", "зация", "моби", "няли", "писы", "ровали", "скоре", "славян", "стических", "таж", "юри", "ющее", " 179", " 1986", " Афри", " Кронштад", " Крым", " Лу", " Лю", " Минераль", " Смо", " Советов", " Ту", " Яро", " беспо", " воло", " возвра", " восстание", " госпо", " дивизий", " дома", " долла", " жела", " зер", " запас", " идеологи", " комисса", " комплек", " крестьяне", " неболь", " ото", " общей", " окруж", " очередь", " полномочи", " потеря", " правления", " православ", " проблемы", " путём", " районе", " реша", " русские", " соедин", " создание", " средства", " степени", " тому", "ti", "Ре", "Россия", "бри", "ламент", "лизация", "ментов", "мимо", "нения", "нной", "нифе", "новь", "ссе", "сон", "стом", "стьян", "сур", "тивной", "чено", "ёж", " 184", " 1992", " 2021", " Геор", " Даль", " Дворцов", " Отечественной", " Родзянко", " Рюри", " Раз", " Российская", " Северо", " Став", " Тем", " Учреди", " бро", " господ", " декабре", " заверши", " крепость", " масшта", " меж", " министра", " миллионов", " наде", " направлении", " носи", " нового", " област", " объявлен", " плен", " поко", " превра", " принадлежа", " российской", " сосредо", " сохраня", " союзных", " столк", " терро", " тон", " транспорт", " ули", " феврале", " экспо", "29", "39", "Все", "Государ", "вшими", "голов", "нских", "например", "нуть", "ссы", "сами", "ствовать", "стойчи", "ступление", "туру", "хран", "хослова", "шему", "щий", "ять", " S", " 178", " 2019", " 2007", " Зем", " Зимнего", " Кар", " Михаила", " Первой", " Свято", " автоном", " веке", " внутри", " вопросы", " государственные", " землё", " изоб", " кры", " кино", " команду", " мере", " море", " монархи", " особо", " охва", " план", " поня", " президент", " призва", " природ", " психи", " пыта", " сла", " соответству", " стар", " укра", " участие", " январе", "вшаяся", "вычай", "жит", "ква", "лков", "лада", "логов", "нё", "нике", "нологи", "резвычай", "сен", "сматрива", "сан", "стоке", "стья", "тни", "так", "тета", "ум", " Ал", " Бори", " Визан", " Его", " Иоан", " Литва", " Нор", " Народ", " РККА", " Эти", " воды", " игра", " концеп", " медици", " могут", " очень", " объек", " ограни", " органов", " острове", " относя", " официально", " первого", " переход", " поле", " положи", " преимуще", " привели", " разных", " ред", " роста", " свидетель", " сторону", " считал", " утвержд", " утвержда", " фон", " члены", " экономике", "Совет", "альные", "вшую", "вого", "денти", "полити", "рованные", "сков", "сив", "ственную", "тивная", "тивно", "тья", "ходе", "ходом", "ющими", "ющихся", " .", " 2014", " Антан", " Венг", " Воз", " Государств", " Европей", " Они", " Прибал", " Столыпи", " бит", " бомб", " вермах", " верхов", " вид", " вошли", " возможности", " воспри", " дней", " дальнейшем", " дисци", " дорог", " другими", " железнодорож", " землёй", " комитета", " которую", " меры", " множе", " музей", " насчитыва", " науки", " ниже", " основных", " подчин", " пользу", " популяр", " превос", " преступ", " представители", " прив", " противоре", " разгро", " рыно", " сбор", " сна", " семей", " специали", " тю", " таких", " физи", "вича", "гистра", "емый", "жай", "женер", "ится", "менталь", "нен", "насти", "низм", "обе", "пере", "револю", "рией", "стройка", "тации", "тической", "чая", "ётр", " 2000", " 2009", " 80", " Анг", " Адмиралтей", " Вар", " Дворцовой", " Ново", " Независи", " Пи", " борьбы", " впоследствии", " военную", " всем", " гим", " гово", " главным", " дли", " договора", " дороги", " женщи", " животных", " заба", " захватили", " иденти", " имеют", " кру", " конферен", " корпус", " лидер", " миллиона", " многих", " муж", " нане", " народного", " настоящее", " неравен", " ожида", " одновременно", " оккупа", " оппози", " пле", " первым", " поста", " предусматрива", " приказ", " произошло", " происхо", " противостоя", " размер", " ресур", " резко", " реформ", " российских", " ряда", " сре", " самолё", " самоу", " секрета", " тогда", " удар", " успеш", " члена", "Ба", "Ве", "Го", "Ни", "Са", "ардиров", "бир", "бург", "валось", "вардей", "джи", "дили", "енности", "еть", "кульп", "лове", "лым", "мендан", "нитар", "номор", "облада", "рги", "ссив", "стова", "тания", "тельную", "тельным", "тике", "торая", "тым", "ятигор", " лё", " 1923", " 2013", " Гос", " Государственного", " Мон", " Нар", " Пар", " Пру", " Русской", " Сино", " Чёр", " архиманд", " бал", " боевых", " борьба", " борьбе", " быстро", " второ", " веков", " вместо", " возгла", " вооружённых", " выда", " группи", " губерна", " детей", " деревян", " диа", " друг", " есте", " законов", " заняли", " землеустроитель", " исполн", " княжества", " конструк", " крае", " края", " ликвида", " моно", " находились", " неиз", " немедлен", " неуда", " оно", " одна", " октябре", " отдельных", " отношении", " первую", " первых", " перемен", " получили", " правило", " предела", " программа", " происходи", " своим", " собрания", " соглашение", " старо", " типов", " требования", " трудов", " указыва", " умер", " форми", " шер", "Од", "вала", "вание", "восточ", "гами", "дить", "ект", "лег", "либо", "льм", "мей", "начально", "нина", "никам", "нови", "нюю", "спи", "сам", "сок", "стической", "тература", "ционного", "ционный", "чное", "щихся", "ьи", "ющую", "ясь", " R", " 1000", " 185", " 1930", " 1993", " 500", " Азии", " Армении", " Дек", " Колча", " Молда", " Петров", " Северного", " Советский", " архимандрит", " баталь", " банка", " внима", " выпол", " группиров", " дворян", " династи", " еже", " жителей", " имел", " индивиду", " информации", " июле", " кава", " классов", " князей", " колон", " коалиции", " компа", " лингвистики", " мае", " национальных", " опро", " объё", " объём", " окончания", " отда", " отличие", " пехо", " пересе", " перестройки", " перешли", " подчи", " подписан", " позволи", " политике", " политические", " получил", " последу", " преоблада", " присоедин", " силу", " сослови", " сотрудниче", " социально", " сравн", " среднего", " становится", " фронтов", " частично", " широко", " эффектив", "in", "Из", "Ме", "ван", "вшегося", "еро", "единя", "енина", "енью", "лого", "ложение", "льци", "мия", "мый", "неш", "произ", "раба", "сной", "ссо", "слава", "тический", "точно", "ференду", "хео", "шан", "экономи", " C", " 1980", " Великого", " Владимира", " Временное", " Государственный", " Констан", " Новгород", " Пе", " Республики", " Соб", " Сталин", " Украине", " ата", " англий", " бур", " банк", " большевики", " бомбардиров", " волнения", " выво", " выполн", " гер", " границы", " денеж", " должна", " зрения", " заключ", " индустри", " интересов", " книги", " командование", " крупные", " курс", " лавра", " либе", " мен", " национали", " началу", " неко", " ними", " ночь", " окра", " оцени", " оби", " опубликова", " ориен", " патри", " пор", " получила", " помощи", " прежде", " предлага", " предпринима", " произошёл", " прямо", " радика", " распростра", " руководства", " русско", " см", " слона", " слоны", " стаби", " структуры", " субъ", " уг", " управление", " христиан", " эми", " экономических", "Бо", "Бу", "ВД", "Согласно", "атр", "говоры", "езда", "еме", "емого", "енное", "жды", "зантий", "клады", "куро", "мами", "мечания", "ними", "ница", "поте", "рея", "рин", "ровая", "сер", "соби", "част", "шению", "юрк", " 173", " 1960", " 1970", " 2022", " 90", " Же", " Конституции", " Ленинграда", " Независимых", " Пятигор", " Украин", " Чехослова", " автомоби", " бив", " валю", " верну", " гражданской", " границе", " дели", " демонстра", " дикта", " домохозяй", " закреп", " занимает", " имуще", " интервен", " историографии", " кораб", " марте", " масс", " минеральных", " монастырь", " музее", " нём", " находилась", " началом", " непри", " недоста", " новое", " новый", " оказались", " оружия", " подвер", " поддержива", " последова", " председатель", " происходит", " референду", " регулирова", " сфер", " сами", " середины", " след", " составлял", " состоянию", " структур", " сухо", " треть", " упраздн", " уровне", " цели", " часов", "th", "Ва", "Литература", "ОН", "бель", "герман", "гах", "делия", "дельных", "деть", "дой", "емой", "енная", "кина", "ланд", "луг", "мь", "мотр", "нный", "плу", "пове", "под", "ссажи", "стрелли", "чев", "шое", "ённый", " T", " 1913", " 31", " Ди", " Кор", " Министер", " Ри", " Тру", " Японии", " аэ", " белых", " безопасности", " боя", " важней", " ведом", " виды", " внешней", " вообще", " временем", " групп", " заме", " зая", " забастов", " закончи", " занимала", " западных", " заявил", " идеи", " исче", " итоге", " июне", " кавале", " коммуника", " лавры", " лозу", " моби", " материа", " месяцев", " модер", " направи", " направля", " наблюда", " названия", " ника", " ним", " обществе", " пен", " поддержа", " позднее", " последние", " постепенно", " преобразова", " предме", " прожива", " прор", " провод", " руководством", " рын", " сказа", " самым", " самого", " самоуправ", " силами", " систему", " ситуации", " советско", " спор", " сыгра", " умень", " участков", " участия", " хозяйство", " царя", " чрезвычай", "американ", "ваку", "вало", "вшись", "грации", "дил", "евская", "кро", "леко", "ложил", "манов", "националь", "охран", "поле", "рми", "ражда", "ряду", "треб", "ционно", "шены", "щено", "щим", "ённой", " M", " 175", " 2012", " 45", " Алексеев", " Антанты", " Вой", " Виль", " Зака", " Кавказа", " Ль", " Москвы", " Петрограда", " Социали", " ап", " арен", " архитектора", " бывшего", " взаим", " византий", " влияния", " говори", " дет", " далее", " десан", " держав", " диску", " достигну", " именно", " крупнейших", " лёг", " меха", " международных", " меня", " мину", " мощ", " нако", " народа", " настро", " немцы", " оказыва", " обстанов", " органы", " организова", " осла", " парти", " партия", " полно", " порядке", " празд", " прио", " противоречи", " протяжении", " процесс", " развер", " различи", " распреде", " расстре", " репре", " руководство", " смен", " сро", " сф", " составили", " составляли", " сум", " тро", " теория", " тюрь", " шерсти", "1907", "78", "Рус", "Си", "альных", "бюро", "вей", "вают", "доль", "жащих", "жуа", "змом", "кови", "купа", "ложения", "лья", "мьер", "нить", "нять", "перь", "плуа", "рованной", "сми", "сове", "спол", "стя", "ствием", "терна", "тисти", "тивных", "хом", "ционной", "ческими", "шинство", "юркгей", " 2006", " 2018", " Азербайджан", " Были", " Вос", " Георги", " Дру", " Император", " Кер", " Между", " Невы", " ООН", " Ос", " Октябрьской", " Рей", " Тре", " Уз", " аб", " агре", " бюро", " включает", " внимание", " грамо", " доб", " должен", " должности", " жили", " значения", " иг", " именова", " использовались", " исследований", " кроме", " казачь", " коле", " комиссии", " конфликт", " кредитова", " леса", " мер", " местных", " нена", " научных", " необходимости", " нормы", " обна", " обеспечива", " обществ", " обязан", " орган", " письмен", " поро", " половины", " порядка", " потребова", " правительству", " предмет", " применя", " приро", " проспе", " просто", " путей", " район", " районов", " районы", " рода", " роли", " современной", " современных", " согласи", " сократи", " сопротивление", " составляла", " соционики", " средств", " таким", " теоре", " территориаль", " товари", " увелич", " установлен", " хоро", " ценно", " честь", " чемпи", " школ", " эваку", " юге", "43", "70", "es", "ИК", "Пу", "Примечания", "вета", "ведение", "верк", "воохран", "довлет", "дравоохран", "ерт", "еты", "жета", "зму", "зацию", "кии", "льской", "нославян", "отно", "раби", "рацию", "риго", "рица", "руют", "техни", "тивы", "щены", " [", " ов", " 300", " Варша", " Главного", " Дума", " Кур", " Латвии", " Мин", " Норве", " Пётр", " Полит", " Рабо", " Смолен", " Советская", " Харь", " автома", " артиллерий", " беспоряд", " благодаря", " великого", " властью", " войскам", " выдели", " дни", " дефици", " десяти", " долларов", " железных", " защиты", " землеустрой", " избран", " имела", " используется", " капитулирова", " коро", " команди", " космополити", " красных", " крестьянами", " крестьянских", " метал", " мини", " молод", " музыка", " национа", " несмотря", " нет", " немцев", " необходимо", " означа", " обли", " обос", " основной", " основы", " отме", " охраны", " пожа", " полага", " повин", " подход", " превы", " проект", " рати", " разби", " развёр", " скульп", " самых", " своём", " сложи", " составляют", " социальный", " столицы", " стреми", " сухопу", " существовали", " съезд", " тысячи", " убе", " уро", " устана", " университет", " условия", " чере", " четыре", " эксплуа", " экспери", " юри", "ar", "Вы", "Гор", "Де", "Ссылки", "Ста", "ав", "вами", "веков", "влены", "ганиза", "дении", "европей", "инг", "ктор", "кину", "кистана", "летия", "лосо", "лённых", "нная", "оли", "ологии", "рудова", "служи", "ссию", "тле", "тная", "тную", "тическое", "ука", "чена", "чным", "час", "щу", "ющиеся", " сту", " 2005", " Азербайджа", " Александрович", " Бесса", " Бессараби", " Болга", " Большой", " ВВП", " Выбор", " Гре", " Желез", " Ита", " Красная", " Му", " НЭПа", " Она", " Республика", " Россией", " Сей", " Сов", " Таджи", " Эстонии", " ал", " августе", " активно", " анали", " близ", " большей", " вскоре", " возро", " воспринима", " вынуждены", " высказа", " гражда", " глубо", " декла", " дело", " добы", " долго", " домохозяйств", " достаточно", " достига", " истре", " идентич", " империя", " императором", " кров", " конкре", " куп", " курор", " леги", " летопи", " литератур", " министерства", " могла", " нападения", " населением", " наука", " начинается", " непосредственно", " норма", " обеспечения", " общественных", " общины", " отказ", " отрица", " отмечает", " пассажи", " печа", " первая", " первое", " плана", " попа", " подраз", " поддержку", " поэтому", " премьер", " приказа", " примен", " пропа", " проте", " прото", " пунк", " распу", " российского", " самодержа", " сентябре", " службы", " состоянии", " союзников", " стиле", " стороне", " сувер", " существует", " сфере", " считают", " съез", " такой", " территорий", " технологи", " товаров", " украин", " упомина", " учебных", " фо", " фабри", " форме", " форму", " хими", " церковь", " четырёх", " ядер", "180", "65", "al", "ГБ", "Крас", "Пере", "Пре", "Пред", "Петербургский", "Сто", "Экономи", "гну", "емая", "зема", "значи", "именова", "кет", "кора", "которые", "лам", "лок", "луб", "нного", "нав", "новение", "осков", "платы", "рай", "рование", "сить", "стане", "тков", "тивный", "ума", "цер", "чную", "чём", " луч", " 1925", " 2020", " IX", " Академи", " Вооружён", " Гитлер", " Екатерины", " Ком", " Кие", " Ленина", " Петропавловской", " Политбюро", " Русская", " Учредительного", " аппара", " архео", " вет", " вновь", " входи", " веро", " владель", " воздуш", " газ", " гаран", " географи", " главный", " глуби", " должность", " жан", " здравоохран", " закры", " издан", " интен", " историю", " исчез", " итогам", " кадет", " казема", " количества", " коммунизма", " крити", " кризис", " лес", " мамонт", " маркси", " местного", " митин", " модели", " назнача", " нацистской", " начались", " озе", " октябрь", " орудий", " отстав", " пала", " поло", " поражения", " победы", " полк", " полиции", " политического", " половина", " полуо", " постсовет", " председателя", " различа", " рей", " русский", " спа", " севе", " семьи", " системе", " создана", " создать", " социализма", " существования", " твор", " трак", " тай", " теат", " тунд", " уз", " убий", " употреб", " холо", " четвер", "1945", "1991", "34", "BN", "SBN", "ol", "Алек", "Боль", "История", "Ком", "Ленин", "Ро", "альной", "виду", "визии", "вистика", "гер", "гли", "дных", "енту", "жей", "жет", "зднее", "зербайджан", "зин", "иболь", "крепи", "круг", "лизован", "ловек", "нге", "нили", "отя", "пят", "производ", "раста", "рина", "ственными", "ствующих", "тастро", "тельство", "тива", "тила", "тивов", "форм", "цах", "циями", "циях", "щается", "щества", "ъя", " 1904", " 2004", " 35", " ВЦ", " Всероссий", " Горбачёва", " Доб", " Дюркгей", " Закон", " Итали", " Италия", " Каре", " Кислов", " Кисловод", " Мор", " Май", " Наиболее", " Пос", " Петербурга", " Председа", " Россий", " Социо", " Ши", " большой", " веду", " военная", " выдви", " выкуп", " выса", " выступи", " выборах", " ген", " гло", " действие", " дисципли", " догово", " доброволь", " другим", " зару", " инвести", " источники", " источников", " канди", " каждой", " кампании", " кандида", " коне", " контрна", " кризиса", " культура", " любы", " мамонты", " международный", " мнение", " нару", " наси", " находился", " находятся", " немедленно", " оке", " образовании", " общих", " объявил", " оказалась", " операций", " особенности", " осуще", " осуществи", " отправ", " отдельные", " пес", " поля", " повер", " пово", " подтвер", " подчиня", " полка", " полков", " полного", " политику", " правов", " преимущественно", " присут", " продвиж", " публи", " разгром", " режим", " режима", " республикан", " сей", " слон", " случаях", " сово", " совокуп", " стави", " существенно", " считается", " считали", " театр", " устойчи", " форм", " эпи", " экономическая", " экономические", "45", "60", "64", "75", "Владими", "Санкт", "влением", "вёл", "веке", "ведены", "вину", "гма", "для", "дёт", "дали", "мян", "мён", "нительно", "новод", "образи", "пр", "рес", "рест", "рига", "ровал", "рования", "солю", "стока", "тным", "тились", "тивное", "цкой", "ционе", "чки", "ческому", "чили", " A", " Вме", " Вебер", " Всего", " Горбачёв", " День", " Дми", " Западного", " Иоаннов", " Михай", " Оде", " Президи", " Те", " Таким", " Трубе", " Узбе", " Эль", " Эрми", " ат", " абсолю", " апреле", " безрабо", " борьбу", " бюрокра", " взгля", " водо", " воспо", " возоб", " вопросов", " всегда", " выход", " германской", " гипоте", " главной", " дре", " данные", " данных", " дворце", " доми", " едино", " зи", " зона", " заведений", " замен", " зависимости", " зарубеж", " измени", " ква", " каждого", " климата", " линии", " макси", " манифе", " марш", " местные", " местах", " наслед", " начал", " неё", " немецкой", " ноябре", " опас", " общее", " объясня", " оружие", " ослаб", " основным", " основана", " основании", " отсутствие", " переворота", " поступа", " погибло", " подвод", " положения", " попытки", " потерпе", " появились", " преж", " предна", " прекращении", " приводи", " проведения", " провозглаш", " программ", " продовольствия", " промышленность", " раско", " сда", " сразу", " связь", " служи", " снаб", " собира", " собрание", " содержание", " созданы", " солдаты", " сравнению", " средне", " структура", " судеб", " существование", " считает", " территориях", " тонн", " точки", " устанавлива", " участвовали", " федера", " федерального", " формирование", " хлеб", " центром", " штаб", " электро", " яви", " языке", "Александ", "Восточ", "Граждан", "Кон", "Кре", "Нов", "ана", "ваются", "вин", "гель", "годы", "дак", "ести", "жении", "жно", "зиат", "лад", "лини", "льского", "льти", "лёв", "май", "мыми", "никах", "пан", "писко", "пита", "полит", "прово", "ради", "реги", "рядок", "сед", "серва", "ссенту", "стых", "ствовал", "стить", "стическая", "струи", "стьяне", "тное", "тности", "тема", "тиру", "тивного", "уко", "ут", "хан", "цкая", "ционная", "чество", "шкин", "шал", "щания", "ъём", "язы", "ёнными", " ей", " р", " 1926", " 48", " ISBN", " XIII", " Америки", " Армян", " Би", " Белого", " Белорус", " Большинство", " Вильню", " Григо", " Гитлера", " Дж", " Европейской", " Закавказ", " Инди", " Ис", " Казахстана", " Китай", " Константи", " Ло", " Ладо", " Ман", " Москва", " Ростов", " Съезд", " Эта", " Югосла", " аграрной", " армян", " архитектур", " брига", " бело", " вол", " времён", " выража", " выхода", " гов", " газе", " гимна", " голосова", " дово", " дворцов", " делега", " деревни", " династии", " доля", " друга", " ежегод", " жерт", " законопро", " захватить", " ими", " издал", " исключением", " исполнитель", " каби", " кад", " княжество", " контроля", " конфликта", " лиши", " литературы", " метро", " маршру", " множество", " модель", " монополи", " научно", " обрабо", " открыт", " пенси", " писал", " планирова", " побереж", " подо", " покры", " пору", " поход", " появля", " поведения", " подписал", " позиции", " помещичьих", " постоянно", " превыша", " пределах", " прибли", " прину", " принят", " принять", " приходится", " прочи", " проявля", " программы", " разделя", " реме", " решений", " силой", " силь", " снизи", " создания", " социальную", " среднем", " статисти", " станции", " страной", " судь", " субъек", " техники", " типи", " транспорта", " управля", " услуг", " участки", " училища", " хода", " хозяйстве", " целей", " частных", " энер", "179", "37", "at", "Гражданская", "Да", "Ле", "Цент", "Чер", "ального", "вшееся", "движ", "дца", "дел", "жены", "зой", "кратно", "лах", "ленных", "лога", "ловский", "лями", "мах", "мую", "начи", "ниями", "номи", "опи", "пря", "падении", "плома", "пользова", "рского", "ракцио", "ристов", "рхии", "рый", "сро", "стских", "ставить", "страи", "стью", "тип", "тиву", "тыми", "хма", "чном", "чат", "шкина", "ённость", " ль", " сты", " 1936", " 34", " Аф", " Бла", " Вод", " Великобритания", " Военно", " Высо", " Ген", " Древней", " Здесь", " Зимний", " Крестьян", " Кронштадт", " Меж", " Министров", " Одновременно", " Пари", " Первая", " Растрелли", " Скандина", " Сибирь", " Турк", " Хотя", " Харьков", " Цер", " Этот", " ам", " арестова", " артиллерии", " банков", " большие", " бюджета", " вермахта", " возника", " всеми", " вторг", " вымира", " выступ", " вышли", " германских", " говор", " гражданского", " грузов", " дове", " двумя", " декре", " действовали", " дивизии", " диплома", " доби", " доходов", " достижения", " евре", " здоров", " закона", " инженер", " инф", " институт", " интересы", " кажды", " киев", " колле", " крайне", " ликвидации", " мероприятия", " методы", " митро", " министр", " моне", " мост", " мяте", " направлениях", " опы", " оборудова", " обсужда", " обучения", " объединения", " обычно", " окружа", " операцию", " ответствен", " относительно", " перебро", " планов", " пока", " порядок", " полной", " помощью", " представления", " престола", " причём", " приходилось", " проспек", " провозгласи", " продолжали", " промышленного", " промышленных", " противопо", " работу", " рабочие", " разго", " рассе", " распоряжение", " рассмотр", " редак", " рейти", " речи", " риза", " скандина", " самой", " своими", " службу", " совета", " соверш", " советское", " сообщения", " сопротивления", " сосредото", " социальная", " стоя", " суд", " считать", " тен", " термин", " укрепления", " уровню", " усили", " функционали", " хлеба", " ценности", " частной", " эту", " экз", " этап", " яр", "38", "XI", "is", "it", "Горбачё", "Пе", "Пове", "Север", "берна", "вори", "гло", "гой", "дением", "дной", "еха", "йт", "кол", "лж", "лека", "логические", "ляция", "менно", "моно", "ницы", "одо", "обра", "ровала", "ровано", "сей", "счё", "следствие", "становление", "тиве", "тлеров", "тори", "чными", "этаж", " P", " c", " жа", " нова", " строй", " 1928", " АССР", " Вран", " Воды", " Дени", " Кавказских", " Кирги", " Комитет", " Латви", " Олег", " Петром", " Пол", " Польше", " Романов", " СП", " Ставро", " Финляндия", " Франция", " Юнга", " Япония", " акт", " академия", " большое", " большую", " бюджет", " версии", " верх", " военный", " вооружённые", " временных", " вызыва", " вынужден", " гвар", " гг", " генераль", " гарнизон", " голода", " городского", " двора", " доступ", " дохода", " допуска", " еписко", " зим", " замет", " зареги", " зарегистри", " землевладения", " землях", " значительной", " известные", " императрицы", " исключи", " использовать", " квар", " кара", " капитализма", " категории", " комендан", " конфликты", " корруп", " москов", " матро", " массовые", " международной", " местности", " методов", " мировая", " многочисленные", " написа", " называют", " насчитывалось", " национальной", " начиная", " нему", " неод", " непре", " неодно", " оз", " опо", " оформ", " обеспечи", " организован", " осенью", " остави", " отменя", " относятся", " плем", " пале", " переста", " перешла", " поверх", " подня", " позже", " получить", " построено", " потен", " появился", " предоставля", " представитель", " приш", " причиной", " пролета", " проводились", " расти", " работе", " реке", " революционных", " роспу", " рубеж", " склад", " срок", " сельских", " слово", " советский", " современного", " соответственно", " составила", " состоялось", " социалистической", " список", " суда", " существовала", " товар", " торговля", " уголов", " уезд", " уско", " уста", " учреди", " учёные", " флаг", " ходатай", " цвет", " чемпиона", " штур", " эсеров", " юг", " являлся", "195", "33", "66", "68", "Владимир", "Мо", "Мос", "Социо", "бежа", "ведческом", "ведён", "вига", "возвра", "гани", "гина", "дание", "действие", "енными", "ид", "клон", "кана", "лимпи", "лиш", "лянд", "мана", "мпири", "нение", "нович", "парта", "пой", "риториаль", "ровой", "рованы", "рупней", "рье", "све", "сных", "стром", "телям", "тинен", "фферен", "фильм", "фрикан", "человек", "чёр", "шка", "ющем", "ённого", " ны", " …", " 150", " 1927", " 1996", " 85", " Востоке", " Временным", " ГУ", " Генераль", " Грузии", " Днепра", " Древнерус", " Евра", " Если", " Иван", " Киеве", " Красно", " Кронверк", " Крыма", " Кубан", " Львов", " Моне", " НК", " Нары", " Прав", " Польша", " Послед", " Правительства", " Руз", " Сем", " Сам", " Ставрополь", " Суще", " Только", " Трои", " Фа", " Центральной", " Черномор", " Шве", " азербайджан", " антиболь", " антибольшеви", " безработи", " беспла", " библи", " большим", " британские", " буржуа", " бывших", " великих", " возглавля", " войной", " всеобщего", " вымер", " ге", " гарнизона", " голосов", " государствами", " границу", " губернии", " деле", " доба", " докла", " должно", " дума", " епа", " единиц", " жё", " залива", " задача", " задачи", " заключения", " западной", " земледелия", " императорской", " индустриали", " интенсив", " использования", " исследователи", " история", " какой", " каса", " катастро", " кампания", " качества", " класс", " конференции", " красно", " лесо", " лица", " ликвиди", " личности", " мастер", " масштаб", " могло", " монар", " музея", " нэ", " награ", " наличие", " насле", " национального", " начался", " опол", " областей", " обраба", " образован", " общие", " овла", " отрас", " отношению", " оценки", " посла", " похо", " полном", " посвя", " постановление", " претен", " предприня", " президента", " престол", " прибыли", " провозглаша", " продукты", " произведения", " радиове", " развитых", " реак", " регуляр", " результатам", " ресурсов", " руках", " рядом", " сведения", " свет", " сня", " самом", " свободу", " семья", " серебро", " следова", " смысле", " сом", " состояла", " социология", " средней", " стен", " стои", " столице", " судов", " теперь", " телевидения", " тенден", " учёных", " филосо", " фун", " хреб", " характера", " ценностей", " центре", " членами", " школах", " эт", " этно", " эше", " элементы", " эпохи", " являлись", " языки", "1906", "35", "74", "Ар", "Бал", "Воз", "Вой", "Га", "Как", "От", "Раз", "Так", "Ча", "все", "вел", "виле", "гин", "гитлеров", "государ", "говоров", "губерна", "дя", "дились", "евской", "жных", "зовы", "итва", "кому", "культур", "лыми", "лье", "льская", "льский", "мма", "мили", "нему", "нета", "нилов", "ногие", "нома", "нёс", "оборот", "оспо", "пления", "рма", "риата", "ружи", "рыва", "сена", "сп", "служива", "споло", "ссам", "стами", "ставки", "тность", "тская", "тельными", "тиров", "тыся", "цом", "ченных", "шо", "шевики", "щую", " H", " „", " 39", " 44", " Армии", " Брита", " Балтийского", " Бела", " ВС", " Вторая", " Всесоюз", " ГК", " Декла", " Ев", " Испол", " Италии", " Колчака", " Международ", " Несмотря", " Оль", " Особ", " Отечественная", " РКП", " Рас", " Румыния", " Слова", " Сейчас", " Уста", " Украина", " Фё", " Центрального", " Чи", " Часть", " Чехословакии", " Ша", " аспек", " англича", " аэро", " базы", " блокады", " больших", " вводи", " варяг", " властей", " влиянием", " возможно", " второго", " выраж", " выро", " выя", " главы", " главнокомандующим", " государственным", " группу", " длин", " дра", " директор", " европейских", " жёст", " зву", " зарабо", " заседании", " землеустроительных", " инж", " институты", " историки", " историков", " истреби", " кто", " кан", " князья", " конец", " коммунизм", " конку", " контрнаступление", " крестьянства", " культурные", " либераль", " магистра", " международного", " меньше", " монастыря", " навод", " наиболь", " наме", " напря", " начать", " начальник", " недоволь", " неизбеж", " неравенства", " новую", " оборону", " общин", " объявили", " определи", " органом", " остальные", " отказыва", " отправи", " отра", " оценкам", " пять", " памя", " перене", " первом", " первонача", " погибших", " подле", " подготовки", " поддержке", " поддержки", " помещения", " последнего", " потерь", " правом", " предот", " предотвра", " прикры", " приняли", " проб", " прось", " проходи", " проходит", " проведена", " раст", " различия", " распада", " рассматривается", " рекон", " результаты", " рейтинге", " ремеслен", " республика", " сражения", " связаны", " собора", " созыва", " сопрово", " союза", " состоялся", " союзниками", " стены", " стоян", " столицей", " странами", " строя", " строительства", " студен", " стыке", " тип", " титул", " удовлет", " управлении", " участок", " фео", " фасад", " формирования", " функций", " характеристи", " хобо", " цена", " царской", " чересполо", " эко", " япон", "32", "42", "79", "80", "88", "am", "Ин", "Мар", "Та", "ЧП", "бря", "валь", "дания", "делы", "ельд", "енным", "ерб", "ерез", "жев", "ингвистика", "кня", "кров", "кса", "как", "логом", "льмов", "менту", "мулирова", "неж", "некси", "нера", "нигов", "низма", "нисти", "нок", "ование", "осуда", "пись", "поля", "пред", "рский", "рована", "сленность", "сомо", "стные", "стые", "стую", "суль", "сят", "тников", "тчи", "тельном", "тило", "тон", "ул", "фо", "фран", "хар", "хозя", "чению", "ченные", "шого", "щем", "ённым", " 1910", " 1911", " 1938", " Ат", " Андрея", " Борис", " Венгрии", " Выборг", " Германию", " Госду", " ЕС", " Ессенту", " Европу", " Жи", " Железновод", " Кня", " Киева", " Китая", " Киевской", " Литовской", " Мамон", " Монго", " Московского", " НКА", " НКАО", " Организа", " Псков", " Памят", " Президен", " Ря", " Сте", " Святого", " Село", " Троцкий", " Хо", " Экономи", " агро", " антигитлеров", " архитектуры", " безу", " ввиду", " входят", " введены", " великий", " взаимодействия", " внутренней", " вокруг", " ворота", " возду", " вторжение", " выдвину", " выполня", " гро", " греки", " данной", " дворянства", " дифферен", " документ", " доминирова", " женщин", " зоны", " заведения", " зави", " затра", " занято", " значительную", " измер", " изменений", " имя", " иногда", " исследователей", " исторической", " камер", " капитуляции", " киносту", " коор", " косми", " кости", " коллективи", " краеведческом", " крестьянского", " курти", " ленин", " легити", " линия", " литературе", " массовой", " мероприятий", " мили", " мнения", " морской", " надельных", " наряду", " назначен", " ненападении", " новая", " ог", " осо", " оши", " обслужива", " обеспечить", " образу", " объектов", " ограничива", " одному", " органами", " осени", " отрасле", " петербур", " переписи", " плани", " плате", " племён", " послужи", " подразде", " полицей", " последних", " поставлен", " правила", " православной", " преодо", " препо", " преступления", " пришли", " принуди", " принципи", " приостанов", " проблем", " происхождения", " ракет", " рациональ", " развитии", " разнообраз", " расходов", " ратифици", " резер", " религиозных", " русским", " спу", " самоуправления", " связано", " сильно", " ситуация", " смешан", " соедини", " созна", " соглашения", " сопровожда", " спорт", " стандар", " страну", " стрем", " судо", " суды", " танковых", " темпы", " терми", " той", " товары", " транспор", " улуч", " усилия", " учени", " участке", " фено", " финно", " форси", " хро", " характеризу", " царь", " чёр", " чув", " эмпири", " юриди", " яв", " являлась", "36", "62", "69", "Брю", "Им", "Истори", "Кор", "Никола", "Пи", "Под", "Прав", "Ру", "Тем", "Чи", "бина", "вклю", "вай", "вок", "воло", "выми", "граф", "граничных", "двор", "демокра", "дению", "дно", "дроб", "евича", "евые", "енос", "жением", "жению", "истори", "казу", "кор", "комму", "леб", "лизм", "льность", "льцин", "манитар", "мато", "морской", "нки", "нём", "нос", "около", "официаль", "посто", "реби", "рил", "рованный", "рья", "селение", "совета", "ссией", "стки", "стого", "сторон", "ступки", "тский", "тес", "тектора", "территориаль", "торое", "фон", "фы", "фикация", "француз", "хий", "цкие", "циал", "циальная", "чка", "чером", "чета", "чины", "шений", "шет", "шир", "шист", "штаб", "ъедин", "ющейся", " $", " )", " E", " L", " лу", " 1897", " 1900", " 1915", " 1937", " 1998", " 2002", " 75", " Ау", " Азербайджана", " Алма", " Александровича", " Вранге", " ГКЧП", " Доброволь", " Дюркгейм", " Иго", " История", " Кавмин", " Лав", " Муз", " Минеральных", " Московский", " НЭП", " Невской", " Около", " Пор", " Парсон", " Петроградский", " Петроградского", " Председатель", " Румынии", " Русский", " Сена", " Серге", " Согла", " Сталина", " Тай", " Тихо", " Уже", " Украину", " Хаба", " Царское", " автор", " аналоги", " анализ", " армией", " ближай", " боевые", " буд", " бума", " бывшей", " вдоль", " весьма", " взаимодействие", " внес", " внешне", " ворот", " вошла", " военное", " военнослу", " вывод", " выступления", " выборов", " выпуск", " высших", " гендер", " главного", " главные", " главных", " гос", " господству", " государственном", " государственную", " гуманитар", " губерний", " дать", " дополн", " докумен", " документов", " душу", " духовен", " железные", " жители", " зо", " забо", " зажи", " закрепи", " замени", " зача", " захвата", " знамени", " знания", " иеро", " императрица", " инстру", " иностранные", " искусства", " историк", " коммер", " комна", " комплекс", " курорт", " лидеров", " максима", " массовое", " миллиар", " момента", " мораль", " морю", " налогов", " нам", " намест", " наро", " наём", " населению", " невы", " неравенство", " нефти", " отече", " обшир", " обуча", " общем", " объедини", " объёма", " оккупации", " освобождения", " отступи", " отчу", " отвеча", " отделения", " отношениях", " охране", " оценке", " партизан", " патрио", " перевод", " перевоз", " переворот", " полез", " пораж", " подавля", " подписали", " политическая", " политическую", " полномочия", " попыта", " последний", " построен", " потребления", " предше", " предложения", " привед", " привиле", " пригла", " приспособ", " признал", " принятия", " проведены", " проводятся", " проекта", " протяжён", " работах", " работников", " разработа", " расска", " распространя", " распространение", " распространения", " реста", " реализации", " реставра", " ризали", " российские", " руки", " рубля", " скры", " связей", " святого", " сексу", " син", " следующие", " слону", " советским", " соционике", " среды", " старой", " стары", " становятся", " статуса", " телеграмму", " техни", " трети", " угрозой", " указом", " успешно", " устройства", " устройство", " формально", " фут", " царского", " цензу", " центров", " централизован", " эли", " экономическое", " этапе", " языком", "1918", "1922", "1990", "44", "48", "49", "55", "as", "mu", "Для", "Древ", "Зи", "КП", "Пар", "СССР", "Сер", "Центр", "Экономика", "ально", "альное", "без", "берг", "вской", "вшуюся", "дные", "дминистра", "емое", "емости", "жали", "зме", "зон", "зиден", "инте", "когда", "козна", "ковым", "контро", "ллиген", "лоны", "ловой", "ловеж", "лённые", "мое", "нар", "начала", "низации", "нистов", "нологии", "ому", "оволь", "ованные", "оспособ", "паде", "пами", "парламент", "правитель", "промышлен", "рская", "рала", "развёр", "росса", "рованная", "сные", "сштаб", "самб", "седнев", "сий", "следу", "ссамбле", "станции", "ственном", "ствовавших", "строен", "тке", "тку", "тской", "тизма", "тическим", "уме", "урман", "цар", "цо", "цовая", "чему", "чий", " G", " N", " o", " 1912", " 1929", " 1994", " 47", " XXI", " Ана", " Англии", " Армянской", " Атлан", " Африке", " Бар", " Брест", " Болгария", " ВЦИК", " Византии", " Вместе", " Войска", " Восточную", " Грузи", " Дан", " Западную", " Минеральные", " Михайлови", " Невский", " Новго", " Олимпи", " Павел", " Пай", " Пайп", " Поэ", " Польшу", " Рича", " Роди", " Револю", " СС", " СНК", " Сева", " Севасто", " Северная", " Столыпина", " Съезда", " Тав", " Турке", " Финского", " Француз", " Ца", " Шу", " Японией", " автомагистра", " администрации", " ансамб", " бар", " базе", " бедности", " беспре", " библио", " боёв", " большевист", " большинства", " быст", " вклад", " вспо", " вста", " втором", " веща", " вида", " владе", " вок", " воск", " возраст", " возраста", " вокза", " вопросам", " восточной", " всему", " всём", " вступила", " вторглись", " выходе", " выборы", " высшего", " высказыва", " генералом", " германские", " глоб", " городской", " группе", " губерниях", " динами", " доли", " доход", " договоры", " дружины", " дум", " жизн", " завод", " засе", " зависимость", " заключа", " заняла", " здании", " значительные", " иска", " известны", " иметь", " империей", " инициативе", " интеллиген", " интеракцио", " использовали", " каждый", " казаков", " капитала", " клад", " км²", " колхо", " командования", " комиссия", " консерва", " конфликтов", " кооперативов", " корре", " лаврой", " лично", " лока", " любой", " люд", " май", " месторо", " минима", " моменту", " монархии", " монополии", " мужчин", " наи", " находилось", " национализации", " неза", " незначи", " новгород", " озна", " осад", " обстоя", " оборонительная", " обрабатыва", " объявлена", " одном", " оказался", " оппозиции", " осуществляли", " отвер", " памятников", " парламент", " переговоры", " поезд", " покину", " помимо", " порт", " пособи", " постра", " потому", " полуостров", " потреби", " правя", " правительств", " прести", " предложил", " предназна", " президентом", " преступлений", " призы", " призыва", " приняла", " приобре", " прошли", " продразвёр", " продуктов", " пропаган", " пространства", " пространство", " путе", " рабочей", " работают", " равни", " равно", " развед", " разные", " разверну", " рассматри", " рек", " реальности", " регионе", " роди", " родов", " румы", " руси", " руководителей", " русская", " ряде", " склады", " ссу", " самолётов", " скоро", " совещание", " соверши", " согласия", " сослов", " социальное", " способствовало", " станови", " столкновения", " стрелков", " суверени", " сферы", " съезда", " твёр", " тема", " темпера", " технологий", " типологии", " уво", " узна", " увеличился", " университе", " упор", " центральной", " чиновников", " шос", " этни", " эвакуи", " экономический", " экспан", " экспер", " экспеди", "1917", "1989", "31", "76", "et", "ig", "om", "si", "tion", "Ду", "Миха", "Но", "ОМ", "Ор", "Ради", "Рас", "См", "Столыпи", "Также", "Фи", "ЭП", "бели", "вского", "вил", "гент", "гру", "градская", "густи", "декс", "держива", "держать", "диа", "ера", "ездов", "ерс", "жная", "жая", "ждении", "жили", "зю", "зах", "исло", "йские", "ковой", "лай", "лизма", "лизацию", "лонов", "льни", "льными", "мера", "ментарии", "минист", "нгов", "немато", "неме", "низация", "ноевропей", "опо", "обили", "порт", "после", "пользования", "рпи", "рачива", "регу", "ровень", "рокко", "сах", "состоя", "социо", "твор", "тными", "тские", "тека", "тео", "тик", "тое", "фу", "цена", "ционирова", "ционным", "чков", "чив", "чёте", "щики", "щиков", "энер", "ённая", " B", " O", " €", " 1703", " 1908", " 1995", " 1997", " 2023", " 41", " 65", " IV", " of", " Аль", " Александро", " Америке", " Анны", " Более", " Бориса", " Влади", " Великая", " Всемир", " Госуда", " Государственная", " Дмитри", " Донба", " Именно", " Крестьяне", " Мак", " Некоторые", " Перво", " Первые", " Первый", " Поэтому", " Право", " Приня", " Прибалтики", " Пруссии", " Республик", " Рюрикови", " Стре", " СПб", " Союзом", " Средней", " Средизем", " Таври", " Финлянд", " Хор", " Эфи", " Эфиопи", " Южной", " ассо", " агрессии", " аннекси", " антигитлеровской", " апрель", " аренду", " барокко", " боевой", " большевиками", " бун", " вследствие", " входили", " ведения", " видах", " военным", " военнослужащих", " возникла", " войн", " восстановление", " встрече", " выйти", " выпла", " городом", " демо", " денег", " десант", " деятельностью", " должност", " достигли", " древнерусского", " другу", " единолич", " зал", " замы", " завоева", " задач", " законы", " законопроек", " затраги", " зачастую", " здравоохранения", " зерна", " идёт", " иско", " идеологии", " иеромо", " изгна", " имелись", " инженера", " инициативу", " искусство", " использование", " исторических", " каких", " казематы", " княжеств", " компози", " конституции", " контролирова", " концепции", " летописи", " лиде", " млад", " масси", " массы", " массовых", " мирового", " монет", " молодё", " молодёжи", " наименова", " нака", " набереж", " нега", " невозможно", " нейт", " нейтраль", " неоднократно", " новым", " опа", " очи", " ощу", " обер", " обнов", " областях", " обраща", " обращение", " общественного", " объединение", " ограничения", " одержа", " округов", " основная", " основу", " остатки", " отды", " отража", " отста", " отказался", " офицер", " петро", " пя", " памятник", " памятники", " патриар", " переговоров", " передать", " питания", " плане", " плат", " постави", " пото", " победу", " повседнев", " поведение", " повинности", " подви", " подчёр", " подверга", " подчёрки", " полное", " полномочий", " получило", " помещиков", " попытка", " правах", " преды", " предложение", " председательством", " предыду", " прида", " приказал", " примеру", " принимает", " принята", " протектора", " произошли", " пролетариата", " проспекта", " процесса", " процессе", " психологи", " раве", " рабочего", " раздели", " развитием", " разнообрази", " разреша", " расширение", " реко", " рекру", " речь", " революционе", " реконструк", " ресурсы", " роз", " сеть", " ске", " спра", " сфе", " свободной", " селений", " сети", " севере", " сельской", " сигна", " складча", " советская", " содержания", " соединения", " сосредоточ", " составляло", " сохранение", " сохранении", " социони", " способствовали", " столицу", " страти", " съезде", " треб", " типологи", " торгового", " транс", " труды", " упро", " устран", " установить", " училище", " фрак", " февраль", " феномен", " финанси", " фунда", " функция", " футбо", " хорошо", " цены", " четверти", " членом", " чуть", " шоссе", " экспорта", " эпоху", " юга", " языкозна", "03", "1941", "1944", "41", "ed", "el", "he", "ri", "ru", "Бар", "Ви", "ДР", "Кавказ", "Москва", "ПК", "Ры", "Сель", "Среди", "ТО", "Те", "Ти", "Тро", "бла", "баросса", "били", "ваясь", "вез", "ведли", "включая", "возвратные", "вшимся", "дев", "дие", "дился", "дови", "довая", "ельдмар", "емель", "емле", "емы", "енского", "ждений", "живать", "жить", "западном", "йка", "йских", "кри", "кистан", "княже", "ковые", "ковая", "ласти", "ленная", "лое", "льном", "лян", "мали", "нго", "нау", "надца", "нил", "ницей", "ниям", "ология", "оси", "ования", "овать", "пания", "писание", "полу", "порта", "прочем", "рку", "рские", "ранспо", "рева", "роз", "рущё", "сем", "слом", "сного", "сона", "стби", "стями", "ствующие", "ствующий", "тном", "тского", "тацию", "тельских", "тизации", "тику", "тиненталь", "товой", "устрой", "фли", "худ", "целя", "шаф", "щению", "эн", "юте", "ённое", " 1837", " 1957", " 1965", " 1977", " 2001", " 2003", " 32", " 37", " 49", " 978", " Аб", " Азербайджанской", " Баку", " Беловеж", " Белару", " ВМ", " ВВС", " Васильевского", " Вильнюс", " Волы", " Врангеля", " Временный", " Выс", " Гали", " Горь", " Главный", " Город", " Дви", " Декларацию", " Ещё", " Значи", " Их", " КГБ", " Кри", " Кали", " Киевская", " Литей", " МВД", " МС", " Многие", " Моло", " Майерс", " Министерства", " Монома", " Молдавии", " Московской", " Неве", " Невского", " Неву", " Норвегии", " Оста", " Основные", " Побе", " Пов", " Пав", " Павла", " Памятник", " Польшей", " Посполи", " Правительство", " Президента", " Семи", " Сергей", " Синод", " Синода", " Скандинавии", " Столыпин", " Таджикистана", " Тогда", " Трубецкого", " Туркмени", " Указ", " Фи", " Центральный", " Ярослава", " авиации", " авиация", " акцен", " анархи", " бер", " биз", " благоприя", " бой", " богат", " большевикам", " большинстве", " британ", " бывший", " ввёл", " вступления", " важнейших", " введён", " взять", " владения", " внед", " восток", " волнений", " воспроизвод", " воспомина", " восстановить", " врач", " вырази", " высшее", " высказались", " высокий", " высоко", " гря", " газета", " городу", " городских", " граф", " границах", " движений", " дезер", " деление", " делам", " диктатуры", " дифференциа", " долг", " домохозя", " достигла", " европейской", " железной", " женщины", " живу", " живописи", " журнал", " залож", " запу", " зар", " зафи", " заверш", " занимали", " занял", " западе", " зафикси", " здоровья", " зимой", " золото", " идей", " иеромонах", " изд", " издания", " изменение", " интерпре", " исключительно", " источниках", " казар", " капитал", " князем", " колеба", " количеству", " командир", " кораблей", " космополитизм", " кредитование", " купе", " культуре", " курса", " курортов", " лег", " льго", " метров", " мобили", " матема", " маши", " месяца", " микро", " мирного", " мировых", " митрополи", " мону", " мысли", " мятеж", " найд", " нар", " нашей", " направление", " народы", " неспособ", " ниж", " ничего", " оди", " обмен", " обозна", " обоснова", " обрати", " океана", " оккупированных", " окраи", " орден", " организовать", " основания", " оставался", " остаётся", " ответственного", " отраслей", " отречения", " отряды", " парла", " парт", " паралле", " перехода", " переданы", " передачи", " пионе", " пишет", " племен", " полов", " порта", " подполь", " подхода", " подходы", " позволяет", " пользования", " помога", " понятие", " послево", " появилась", " преобраз", " предостав", " предприняли", " приступи", " пришёл", " прибыл", " признана", " принципы", " приобрета", " природных", " пришлось", " прошло", " проблема", " производстве", " происхождение", " проспект", " противостояние", " прочих", " прямой", " психологии", " путеше", " размеща", " районах", " расходы", " резиден", " революционного", " революционные", " регионов", " результатов", " реформирова", " роты", " рыночной", " сначала", " спас", " сраж", " сайт", " самый", " сана", " самое", " самодержавия", " связанные", " сделать", " северной", " сектора", " секретаря", " сельском", " служа", " смену", " смогли", " соединя", " соли", " сосед", " собственно", " совершенно", " сообщества", " сотрудничество", " социализации", " среднее", " став", " старей", " структуре", " сутки", " существовало", " террор", " топо", " торговых", " традиции", " трудя", " тылу", " уступа", " убито", " убийства", " угрозы", " укрепление", " уровнем", " установлена", " участники", " участием", " учётом", " фоне", " факторов", " фасадов", " феода", " формируется", " французского", " хан", " хра", " хозяйств", " центральных", " частями", " человеком", " числу", " эска", " экономику", " экономическую", " эмигра", " эсеры", " эффективности", "06", "1915", "1921", "1905", "46", "63", "90", "re", "Александр", "Би", "Вели", "Города", "Ди", "Западного", "Западный", "Кроме", "Красная", "МИ", "Несмотря", "Оцен", "Пра", "Повести", "Союз", "То", "Тре", "альный", "бб", "боре", "вшему", "воря", "гно", "ггс", "графия", "густина", "два", "дный", "дельные", "ейн", "емым", "енностью", "еони", "жные", "жесточ", "звание", "зировать", "ию", "информа", "йского", "кто", "канчива", "клопе", "комп", "курорт", "ладель", "ланди", "лая", "ленный", "лиру", "лицы", "лона", "лово", "льтерна", "люков", "мос", "меняется", "милли", "мирован", "нений", "нными", "нском", "нден", "носи", "ностями", "нциклопе", "ощ", "оров", "осо", "плина", "пах", "правов", "рских", "рабах", "риггс", "риль", "рона", "ровер", "рованным", "руются", "сный", "ссу", "сё", "слави", "следования", "соны", "спонден", "стание", "ствий", "ствование", "ствования", "стического", "сточники", "стый", "тете", "тией", "торами", "угор", "ходу", "хорон", "чие", "шедших", "ьев", "япо", "ёд", " ;", " F", " 1762", " 1812", " 1860", " 1934", " 1999", " 43", " 88", " Авст", " Алексеева", " Армия", " Афгани", " Африки", " Боло", " Белоруссия", " Бессарабии", " Впоследствии", " Венгрия", " Владиво", " Владимиров", " Воро", " Востока", " Волго", " Вооружённых", " Временному", " Греции", " Днепр", " Договор", " Её", " Зако", " Ино", " Иванова", " Инженер", " Интер", " Кана", " Константино", " Лев", " Лингвистика", " Литовского", " Мурман", " Мус", " Межпарламент", " Моги", " НКВД", " Например", " Наука", " Наций", " Националь", " Нарышкина", " Николаем", " Объедин", " Пла", " Павлов", " Петер", " Петроградской", " Позднее", " Постановление", " Пятигорске", " Рим", " Рос", " Распу", " Рибб", " Риббент", " Риббентро", " Романовых", " Рюрика", " Рюриковичей", " Стра", " Саха", " Современ", " Советским", " Советских", " ТИ", " Три", " Узбекистана", " Федераль", " Церкви", " Что", " Чернигов", " Ше", " Шта", " Эрмита", " ассамбле", " ау", " адмирал", " арк", " баш", " батальона", " белые", " беспорядков", " блок", " брата", " бывшие", " вов", " враж", " варягов", " введена", " величи", " видом", " включены", " владение", " водами", " возглавил", " возобнови", " воинской", " вопросу", " восприя", " восстановлении", " восточных", " времена", " вымирания", " выступлений", " гале", " газеты", " генералу", " глас", " гласи", " гори", " грамма", " группами", " группировки", " дев"], "merges": [["с", "т"], [" ", "п"], [" ", "в"], ["е", "н"], ["о", "в"], ["р", "а"], [" ", "с"], ["н", "о"], [" ", "и"], ["н", "а"], ["к", "о"], ["г", "о"], ["р", "е"], [" ", "о"], ["л", "и"], ["р", "о"], ["н", "ы"], ["н", "и"], ["л", "ь"], ["р", "и"], ["д", "а"], ["к", "а"], [" п", "о"], ["т", "о"], ["л", "а"], [" ", "на"], ["к", "и"], ["ен", "и"], ["т", "е"], [" ", "д"], ["м", "и"], ["ст", "в"], ["л", "о"], ["н", "е"], ["т", "и"], ["т", "а"], [" ", "б"], ["л", "е"], ["з", "а"], ["е", "р"], ["ц", "и"], ["с", "ко"], [" ", "1"], [" ", "м"], ["ч", "е"], [" ", "С"], ["с", "ки"], ["р", "у"], [" с", "о"], ["ов", "а"], ["в", "о"], ["в", "а"], [" ", "у"], [" в", "о"], ["е", "т"], [" ", "к"], [" ", "ко"], ["ст", "а"], [" ", "В"], ["д", "и"], ["с", "я"], [" ", "а"], ["в", "и"], [" ", "("], [" ", "ра"], ["с", "и"], ["ч", "а"], ["ст", "и"], ["м", "а"], [" ", "го"], ["л", "я"], [" ", "за"], [" ", "не"], [" о", "б"], ["ны", "х"], ["п", "о"], [" п", "ро"], ["е", "м"], ["д", "е"], ["с", "ь"], [" 1", "9"], ["но", "й"], [" ", "П"], [" б", "ы"], ["ч", "и"], [" о", "т"], ["ени", "я"], ["ст", "о"], ["т", "ь"], ["д", "у"], [" п", "ри"], [" ", "г"], ["ны", "е"], [" ", "Р"], [" ", "«"], ["х", "о"], [" ", "К"], [" ", "ре"], ["е", "й"], ["о", "с"], ["те", "ль"], ["ст", "ь"], ["м", "о"], ["н", "ов"], ["но", "го"], [" ", "э"], [" д", "о"], ["ени", "е"], ["г", "и"], ["ш", "и"], ["о", "р"], ["ско", "й"], [" ", "ф"], ["ж", "е"], [" ", "ка"], ["м", "е"], ["р", "ы"], ["т", "ы"], ["в", "е"], [" и", "з"], ["с", "ка"], ["с", "е"], [" п", "ре"], ["б", "о"], ["п", "а"], ["р", "я"], ["р", "ов"], ["м", "ен"], ["т", "у"], ["н", "у"], ["н", "я"], ["г", "а"], ["ны", "й"], [" ", "2"], [" в", "ы"], ["к", "ов"], ["ств", "ен"], ["е", "ре"], [" ", "А"], [" ", "з"], ["ци", "и"], [" ", "Г"], ["е", "в"], ["с", "а"], [" ", "Н"], [" ", "М"], ["п", "е"], ["ско", "го"], ["к", "у"], [" ра", "з"], ["ни", "я"], ["ств", "а"], ["щ", "е"], ["ски", "й"], ["л", "ов"], [" ", "то"], ["щ", "и"], ["ж", "и"], ["с", "у"], ["д", "о"], ["л", "ен"], [" ", "те"], ["л", "ю"], ["м", "у"], ["ств", "о"], [" во", "й"], [" м", "е"], ["а", "р"], ["на", "я"], ["ст", "ра"], ["п", "и"], ["го", "да"], [" ", "е"], [" ", "ч"], ["о", "б"], [" по", "д"], ["ос", "си"], ["да", "р"], ["С", "Р"], ["л", "у"], [" д", "е"], ["ски", "х"], ["ска", "я"], [" ", "Б"], [" ", "т"], ["м", "ы"], ["з", "и"], ["ны", "м"], [" Р", "осси"], [" б", "о"], ["р", "ова"], [" ", "О"], [" ", "та"], ["ци", "о"], ["ни", "е"], ["ски", "е"], [" ", "Д"], ["г", "ра"], ["с", "ле"], [" ко", "то"], ["ли", "сь"], ["а", "ль"], ["т", "ов"], [" ", "ми"], ["но", "е"], [" п", "ере"], [" ", "че"], [" м", "а"], ["ю", "т"], [" п", "ра"], ["ш", "е"], [" ", "ста"], [" ", "я"], [" м", "о"], ["но", "сти"], ["С", "СР"], [" ", "ц"], ["а", "н"], [" ", "Л"], ["но", "сть"], ["ов", "ет"], ["в", "ы"], [" ", "ли"], ["п", "у"], [" ко", "н"], [" С", "ССР"], [" го", "да"], ["0", "0"], ["ро", "д"], [" ч", "то"], ["л", "ения"], ["ё", "н"], ["с", "о"], ["ти", "в"], [" пре", "д"], ["с", "по"], ["е", "к"], ["ж", "а"], ["з", "ы"], ["в", "ля"], [" ", "И"], [" ", "Т"], [" а", "р"], ["су", "дар"], [" о", "с"], ["к", "е"], ["д", "ы"], [" ", "ча"], [" го", "судар"], [" ", "ру"], [" с", "и"], ["ет", "ся"], ["у", "р"], ["ст", "у"], ["ци", "я"], ["ло", "сь"], ["д", "ов"], [" э", "то"], ["ра", "з"], ["б", "и"], ["ст", "ро"], ["ф", "и"], ["в", "ши"], ["к", "т"], [" на", "ча"], ["б", "а"], [" с", "во"], [" и", "н"], [" та", "к"], ["но", "м"], ["ри", "и"], ["те", "р"], ["го", "ду"], ["с", "си"], ["ти", "че"], [" в", "е"], [" ка", "к"], ["1", "9"], ["ни", "и"], ["да", "н"], [" бы", "ли"], [" П", "о"], [" з", "ем"], [" ", "стра"], [" Росси", "и"], [" ", "но"], ["я", "н"], ["ен", "т"], [" д", "ля"], ["п", "ре"], ["ну", "ю"], ["л", "ся"], ["ла", "в"], ["п", "ра"], [" к", "ре"], ["г", "ов"], ["ци", "аль"], ["ств", "и"], ["ю", "щи"], ["ени", "и"], ["л", "ы"], [" ", "ро"], ["ла", "сь"], ["ны", "ми"], ["щ", "а"], [" ", "З"], ["н", "д"], ["б", "е"], ["п", "ро"], ["к", "ра"], [" ра", "с"], [" с", "у"], ["л", "ение"], [" ", "Ф"], ["о", "й"], ["хо", "ди"], ["о", "н"], ["и", "з"], [" бы", "ло"], [" бы", "л"], [" 2", "0"], ["я", "б"], [" ", "ле"], ["ско", "е"], [" и", "м"], ["о", "д"], [" со", "ста"], [" во", "з"], ["ра", "н"], ["ц", "а"], [" кото", "ры"], ["ш", "а"], ["ко", "но"], [" в", "ре"], [" в", "се"], ["I", "I"], [" с", "а"], ["ло", "ги"], [" в", "ла"], ["е", "ль"], ["в", "ер"], ["ж", "д"], [" ", "Е"], ["ру", "п"], [" 1", "8"], ["х", "а"], [" д", "ру"], ["ени", "й"], ["б", "ы"], ["ра", "ж"], ["ри", "я"], [" Н", "а"], [" б", "е"], [" ", "хо"], ["ро", "н"], [" ", "У"], [" ", "3"], ["ер", "ма"], ["г", "ла"], [" п", "ер"], ["г", "у"], ["м", "я"], ["пе", "ра"], ["з", "у"], [" ", "сто"], [" 19", "4"], [" по", "сле"], ["и", "н"], ["с", "ов"], [" о", "д"], ["ра", "ль"], [" бо", "ль"], ["ст", "е"], ["в", "я"], ["з", "на"], ["ре", "д"], [" по", "ли"], [" те", "р"], [" ", "ни"], ["ле", "е"], [" К", "а"], ["не", "й"], ["з", "я"], [" об", "ще"], ["ви", "тель"], [" о", "р"], ["д", "ер"], ["ств", "у"], [" бы", "ла"], [" во", "ен"], [" так", "же"], ["х", "и"], ["м", "ер"], ["с", "к"], ["ц", "е"], [" В", "о"], ["ро", "м"], [" 19", "1"], ["ф", "ор"], ["ен", "е"], [" с", "овет"], ["ле", "к"], ["ен", "а"], [" ", "же"], [" ар", "ми"], ["ств", "ова"], ["ен", "ы"], [" ра", "бо"], ["б", "ли"], [" ", "жи"], ["ка", "за"], ["ри", "то"], ["ени", "ю"], [" ", "чи"], ["коно", "ми"], [" и", "сто"], ["с", "ку"], ["па", "д"], [" ", "ш"], ["з", "да"], ["б", "ур"], ["сто", "я"], [" ", "X"], ["л", "н"], ["ло", "ж"], ["ж", "ду"], [" об", "раз"], ["ль", "ко"], [" ", "4"], [" ор", "га"], ["пра", "в"], [" че", "лов"], ["ы", "х"], [" 1", "7"], [" про", "из"], [" п", "а"], ["ов", "е"], ["ле", "й"], [" С", "о"], [" тер", "рито"], ["ски", "м"], ["во", "лю"], [" вой", "ны"], [" и", "ли"], ["ста", "нов"], [" ", "да"], [" со", "циаль"], [" го", "ро"], [" на", "се"], ["ени", "ем"], ["ни", "ка"], ["ти", "я"], [" д", "и"], [" з", "на"], ["и", "т"], ["ни", "ма"], [" ", "Э"], [" пра", "витель"], [" П", "ет"], ["яб", "ря"], ["ют", "ся"], [" п", "е"], ["ве", "д"], ["ко", "н"], ["хо", "д"], ["ре", "мен"], [" е", "го"], ["зы", "ва"], ["с", "пе"], [" об", "ъ"], ["цио", "н"], ["а", "ли"], ["п", "ы"], ["з", "ова"], [" д", "во"], ["н", "г"], [" С", "овет"], [" ме", "жду"], ["тер", "бур"], [" вой", "ска"], [" и", "ю"], ["ен", "ь"], ["ти", "й"], ["ть", "ся"], ["цио", "на"], [" 19", "2"], ["ко", "й"], [" э", "кономи"], ["сту", "п"], [" 19", "9"], [" д", "ей"], [" кре", "сть"], [" Р", "у"], [" к", "у"], ["ско", "м"], [" З", "а"], [" с", "е"], ["о", "на"], [" ", " "], [" ", "5"], [" со", "б"], [" ос", "нов"], [" государ", "ствен"], ["во", "д"], [" и", "х"], ["о", "м"], [" к", "ня"], [" ру", "с"], ["а", "к"], ["ц", "ы"], ["ч", "ё"], ["е", "тербур"], ["то", "р"], [" дру", "ги"], [" по", "л"], ["ра", "с"], ["ы", "е"], [" а", "в"], ["т", "ся"], [" го", "ду"], ["с", "ы"], ["то", "м"], [" 20", "1"], ["ци", "ю"], [" у", "ча"], ["ди", "н"], [" ре", "волю"], [" ф", "ор"], ["р", "ь"], [" Г", "ерма"], [" п", "ров"], [" вре", "мя"], ["д", "ова"], ["п", "ри"], [" по", "лу"], [" и", "ме"], [" б", "а"], ["в", "у"], [" п", "у"], ["лов", "и"], ["ру", "ж"], [" ", "нов"], ["ю", "з"], [" с", "вя"], ["ни", "й"], ["ни", "ков"], [" ", "ты"], [" ко", "м"], [" я", "вля"], ["ни", "к"], ["о", "ль"], ["ро", "й"], ["т", "ри"], ["ст", "ре"], [" ", "Ч"], ["ен", "о"], ["ко", "м"], [" в", "и"], [" до", "л"], ["е", "ли"], ["ску", "ю"], [" во", "с"], [" и", "спо"], ["к", "лю"], [" бо", "лее"], [" при", "ня"], ["с", "пу"], [" А", "лек"], [" ", "Ц"], [" от", "но"], [" раз", "ви"], [" ф", "рон"], [" со", "зда"], ["з", "ва"], [" с", "ов"], ["о", "т"], ["сто", "ч"], [" К", "и"], [" п", "ла"], ["зя", "й"], [" г", "руп"], [" 19", "8"], [" образ", "ова"], ["г", "е"], [" 2", "00"], ["те", "ри"], ["ни", "ки"], ["т", "р"], [" ", "6"], [" в", "с"], ["ос", "у"], ["и", "м"], ["ств", "е"], [" ", "ю"], [" п", "ар"], ["в", "ет"], [" в", "а"], [" челов", "ек"], ["ство", "м"], ["тель", "но"], [" горо", "да"], [" про", "тив"], ["ан", "кт"], [" ", "х"], ["ка", "з"], ["ни", "за"], ["й", "ской"], ["н", "ова"], ["х", "ов"], ["чи", "та"], [" ", "9"], [" П", "ри"], [" насе", "ления"], ["П", "етербур"], ["ё", "м"], [" са", "мо"], ["ко", "ла"], ["ко", "ло"], ["ль", "та"], ["ма", "н"], [" 19", "0"], [" М", "и"], ["мо", "н"], ["ту", "р"], [" с", "лу"], [" и", "с"], [" м", "ар"], [" я", "зы"], [" Б", "е"], ["г", "да"], ["ев", "ер"], ["в", "ро"], ["раж", "дан"], ["стра", "н"], [" ", "8"], [" то", "лько"], ["де", "й"], ["до", "м"], ["ли", "я"], ["спу", "бли"], ["ки", "х"], ["то", "ры"], ["че", "ских"], ["де", "ль"], ["у", "ю"], [" Н", "и"], [" об", "ла"], ["ка", "б"], ["са", "нд"], ["з", "д"], [" су", "ще"], [" е", "ё"], ["зу", "льта"], ["к", "ры"], ["осу", "дар"], ["ра", "ни"], [" вла", "сти"], [" ча", "ст"], ["с", "са"], [" С", "анкт"], ["че", "ские"], [" Пет", "ро"], [" на", "у"], ["ре", "б"], ["ст", "ы"], [" террито", "рии"], ["ка", "н"], [" о", "к"], ["ло", "м"], ["ра", "к"], [" ", "7"], ["о", "руж"], ["ре", "ди"], ["ре", "з"], ["циона", "ль"], ["ль", "зова"], [" арми", "и"], [" кресть", "ян"], ["не", "е"], ["о", "го"], [" де", "каб"], ["рова", "н"], ["с", "об"], [" об", "о"], [" поли", "тиче"], [" ре", "зульта"], ["но", "му"], [" ле", "т"], ["вши", "х"], ["пре", "де"], [" пе", "ри"], ["на", "ко"], ["у", "з"], [" ", "ти"], ["ст", "ру"], ["ш", "ей"], [" со", "цио"], ["во", "й"], ["то", "ра"], [" М", "ос"], ["ш", "ения"], [" дей", "стви"], [" пред", "ста"], ["ци", "й"], [" Алек", "санд"], [" с", "ло"], ["д", "ен"], [" не", "ме"], [" боль", "ше"], [" исто", "ри"], [" с", "чита"], ["те", "лей"], [" ча", "сть"], [" ", "Ю"], [" о", "ста"], ["ни", "ст"], ["ч", "ение"], ["че", "ской"], [" ", "Х"], [" с", "ред"], ["вши", "е"], ["с", "ла"], ["пи", "са"], [" ", "I"], ["ви", "си"], ["мы", "ш"], [" которы", "е"], [" ц", "ент"], [" ", "дан"], [" В", "ели"], ["к", "ре"], [" ", "лю"], [" со", "стоя"], ["2", "0"], ["стро", "й"], [" ", "II"], [" г", "лав"], [" то", "м"], ["з", "ма"], ["м", "ени"], ["с", "лен"], ["т", "ро"], ["я", "ви"], [" стра", "ны"], ["м", "лн"], ["ти", "и"], [" Е", "вро"], ["го", "д"], ["сле", "дова"], ["щ", "ё"], ["П", "о"], ["ене", "ра"], ["ла", "га"], ["мо", "ж"], ["мыш", "лен"], ["ря", "д"], [" Г", "осудар"], ["ко", "го"], [" о", "коло"], ["н", "к"], ["ти", "н"], [" п", "ло"], ["1", "7"], ["ни", "ю"], ["ст", "ов"], ["ш", "ение"], [" государ", "ства"], [" ча", "сти"], ["ли", "ч"], ["сси", "й"], ["ц", "ев"], ["ющи", "х"], [" ко", "ми"], [" хо", "зяй"], ["п", "рия"], [" ", "Я"], [" К", "о"], [" ку", "ль"], ["за", "н"], ["л", "ли"], [" им", "пера"], [" ма", "мон"], [" орга", "низа"], ["я", "х"], ["сти", "ту"], [" бе", "з"], ["н", "ва"], [" сто", "ро"], ["Н", "а"], [" а", "к"], [" на", "род"], [" ре", "фор"], ["ен", "но"], ["ность", "ю"], [" с", "по"], [" ма", "с"], [" в", "ер"], [" к", "руп"], [" 19", "3"], [" п", "и"], [" пер", "вы"], ["ствен", "ной"], [" соста", "вля"], [" ты", "ся"], [" э", "ти"], ["б", "ер"], ["гра", "д"], ["ни", "ч"], [" М", "а"], [" жи", "з"], [" э", "к"], [" я", "нва"], [" дол", "ж"], [" неме", "ц"], [" со", "гла"], [" т", "ру"], [" ф", "и"], ["1", "8"], ["ви", "ж"], ["ша", "я"], ["щ", "ей"], [" д", "у"], ["ра", "в"], [" 1", "0"], [" го", "род"], [" у", "с"], ["та", "ли"], ["ко", "торы"], ["ч", "но"], [" Ни", "кола"], ["х", "ва"], [" соб", "ствен"], ["о", "з"], [" С", "Н"], [" вой", "ск"], [" у", "ч"], ["б", "ор"], ["ем", "у"], ["з", "м"], ["т", "я"], ["ч", "ь"], [" зна", "чи"], ["ре", "в"], [" про", "мышлен"], ["ка", "х"], ["л", "ова"], [" все", "х"], [" кото", "ро"], [" то", "р"], ["ки", "е"], ["ли", "че"], ["ци", "али"], ["ши", "х"], [" Росси", "йской"], [" ко", "р"], ["стру", "к"], [" им", "пе"], ["ни", "ем"], ["по", "ли"], ["ё", "р"], [" Л", "ит"], [" г", "енера"], [" дво", "р"], [" на", "ходи"], ["по", "л"], ["е", "де"], ["ско", "му"], ["че", "ского"], [" п", "ов"], [" поли", "ти"], ["к", "ла"], ["ли", "чи"], ["ски", "ми"], [" Герма", "нии"], [" зем", "ле"], [" у", "же"], ["гов", "ор"], [" Т", "а"], [" к", "ла"], [" с", "ель"], ["ты", "с"], [" о", "кт"], [" о", "фи"], ["и", "с"], ["л", "ё"], ["ющи", "е"], [" ", "ж"], [" ", "стро"], [" декаб", "ря"], [" ми", "ров"], ["н", "ди"], ["п", "ер"], [" о", "пера"], ["та", "ль"], [" ", "Ш"], [" П", "а"], [" е", "щё"], [" произ", "вод"], [" че", "рез"], ["б", "у"], ["ж", "да"], ["ле", "з"], [" С", "и"], [" У", "кра"], [" ре", "спубли"], ["до", "л"], ["о", "ди"], ["ос", "ле"], [" 194", "1"], [" на", "прав"], ["не", "го"], [" пло", "ща"], [" ф", "ев"], ["е", "дин"], ["на", "ми"], ["ш", "ли"], [" со", "юз"], ["ч", "ения"], [" 191", "7"], [" А", "р"], [" СН", "Г"], [" кре", "по"], [" это", "м"], ["вши", "й"], [" Р", "е"], [" а", "пре"], [" с", "ент"], [" сво", "и"], [" о", "преде"], ["в", "ра"], ["дер", "жа"], ["ри", "та"], ["ше", "го"], [" ра", "спо"], ["а", "л"], ["с", "но"], ["ход", "я"], [" ве", "ка"], [" явля", "ется"], ["ту", "ры"], [" Мос", "к"], [" ар", "хи"], [" испо", "льзова"], [" результа", "те"], [" ф", "у"], ["д", "ь"], ["с", "ли"], ["ти", "е"], [" б", "у"], [" в", "клю"], [" г", "раждан"], [" ию", "ня"], [" мар", "та"], ["за", "виси"], ["ли", "за"], ["ста", "н"], ["ф", "е"], [" Н", "е"], [" ме", "сто"], [" тыся", "ч"], ["ми", "рова"], [" вла", "сть"], [" которы", "х"], [" пери", "од"], [" при", "зна"], [" ра", "й"], [" ", "ха"], [" 1", "2"], [" К", "рас"], [" ис", "следова"], [" не", "которы"], [" тор", "гов"], [" ч", "лен"], ["ц", "ен"], [" зем", "ли"], [" ру", "ков"], ["жд", "ения"], ["ё", "л"], [" к", "ра"], [" об", "щи"], [" у", "ров"], ["ени", "н"], ["л", "ении"], ["те", "ли"], [" револю", "ции"], ["логи", "и"], ["на", "род"], ["те", "й"], ["ту", "ра"], [" больше", "ви"], [" ка", "пи"], [" о", "н"], [" си", "ст"], [" фев", "ра"], ["о", "не"], ["се", "да"], [" Р", "а"], [" не", "ско"], [" че", "м"], ["л", "ён"], [" ав", "гу"], [" во", "про"], ["ки", "й"], ["сси", "и"], [" 1", "5"], [" г", "рани"], [" г", "у"], [" де", "я"], [" ма", "я"], [" ни", "х"], ["гра", "м"], ["сту", "па"], ["че", "ский"], ["ы", "й"], [" те", "ле"], ["ва", "ли"], ["те", "к"], ["те", "ля"], ["че", "ская"], [" С", "евер"], ["д", "ми"], ["и", "тель"], [" По", "ль"], [" в", "не"], [" до", "сти"], ["а", "т"], ["ва", "я"], ["гра", "фи"], ["е", "о"], ["ла", "ди"], [" С", "ове"], [" зем", "ель"], [" полу", "чи"], ["ши", "н"], [" рас", "с"], ["ма", "нд"], ["оруж", "ён"], ["с", "с"], [" го", "дов"], [" на", "д"], ["ва", "ть"], ["ем", "о"], ["т", "вер"], ["я", "ми"], [" пра", "во"], [" это", "го"], ["ни", "х"], [" воз", "мож"], [" ме", "ст"], [" об", "е"], [" про", "дол"], ["во", "р"], ["ме", "ри"], ["р", "т"], [" В", "ер"], [" на", "зва"], [" сво", "бо"], ["л", "да"], ["ст", "ей"], [" в", "ну"], [" мо", "ж"], [" суще", "ствова"], [" уча", "ст"], [" янва", "ря"], ["во", "бо"], ["во", "ди"], [" К", "он"], [" други", "х"], [" м", "но"], [" на", "зыва"], [" ц", "е"], ["ка", "ми"], ["ру", "с"], ["ци", "ей"], [" Укра", "и"], [" о", "ст"], [" те", "м"], ["в", "лен"], ["е", "д"], ["и", "бо"], ["от", "вет"], ["ф", "ер"], ["ще", "го"], [" П", "ер"], [" други", "е"], [" к", "ри"], [" обо", "ро"], [" от", "кры"], [" с", "ле"], [" стра", "н"], [" то", "го"], ["ор", "ь"], ["сте", "п"], [" В", "и"], [" а", "н"], [" ав", "то"], [" кон", "це"], ["с", "лав"], ["те", "ра"], [" Росси", "я"], [" ин", "те"], [" которы", "й"], [" о", "су"], [" ос", "нова"], [" после", "д"], [" челов", "е"], ["н", "ь"], ["ра", "бо"], [" ха", "рак"], ["к", "ова"], ["то", "рой"], ["ы", "м"], [" ко", "личе"], [" правитель", "ства"], [" чи", "сле"], ["ма", "три"], ["о", "ло"], ["ц", "у"], ["ч", "ен"], [" О", "д"], [" за", "ня"], [" пере", "да"], [" уч", "ре"], ["мо", "сти"], ["ри", "й"], [" Бе", "ло"], [" м", "у"], [" ста", "ли"], [" те", "х"], ["ве", "ст"], ["на", "х"], ["ни", "тель"], ["ствен", "но"], [" за", "нима"], [" на", "циональ"], ["ов", "о"], [" д", "виж"], [" с", "ере"], ["ви", "сти"], ["вы", "е"], ["па", "с"], ["ющи", "й"], [" В", "ремен"], [" г", "ла"], [" д", "ву"], [" мо", "на"], [" о", "ни"], [" од", "нако"], [" ф", "а"], ["ди", "ни"], ["з", "е"], ["л", "ением"], ["щ", "ения"], [" ", "ши"], [" дея", "тель"], [" импе", "рии"], [" нача", "ле"], [" рабо", "чи"], [" с", "пе"], [" сент", "ября"], [" сов", "ремен"], ["з", "ер"], ["лади", "ми"], [" ", "ки"], [" В", "се"], [" м", "ор"], [" обще", "ства"], [" ру", "б"], [" у", "прав"], ["реб", "ова"], [" Л", "и"], [" ми", "нист"], [" но", "ября"], [" ус", "лови"], ["ерма", "н"], ["ль", "но"], ["та", "ми"], [" Д", "у"], [" и", "но"], [" сист", "ем"], [" у", "станов"], [" фу", "нк"], ["Петербур", "г"], ["ду", "к"], ["л", "ле"], [" ро", "ссий"], ["г", "ро"], ["де", "ли"], ["ка", "я"], [" за", "хва"], [" на", "ступ"], [" соста", "ви"], [" сторо", "ны"], [" ц", "ер"], ["С", "о"], ["р", "та"], [" X", "I"], ["зи", "и"], ["ки", "м"], ["ни", "стра"], [" 199", "1"], [" апре", "ля"], [" вой", "на"], [" пра", "в"], [" со", "ответ"], [" со", "х"], [" соста", "в"], [" ф", "ло"], ["фор", "ма"], ["ще", "ств"], ["ъ", "е"], [" 191", "8"], [" за", "пад"], [" и", "де"], [" ли", "ш"], ["Ф", "СР"], ["де", "ла"], ["т", "ных"], ["т", "ра"], [" 1", "1"], [" С", "е"], [" жиз", "ни"], [" ию", "ля"], [" кресть", "я"], [" ф", "ак"], ["з", "ь"], ["ши", "е"], [" Вер", "хов"], [" За", "пад"], [" авгу", "ста"], [" г", "а"], [" г", "де"], [" пред", "прия"], [" раз", "лич"], ["ствен", "ного"], ["тр", "ен"], [" Б", "о"], [" б", "орь"], [" по", "лож"], ["к", "ви"], ["л", "ений"], ["ща", "я"], [" Р", "С"], [" вклю", "ча"], [" из", "мен"], [" по", "мо"], [" про", "ис"], ["ле", "м"], ["стви", "и"], ["т", "ки"], ["тиче", "ски"], [" вос", "ста"], [" го", "ды"], [" ком", "му"], [" ми", "ре"], [" не", "зависи"], [" о", "каза"], [" пер", "во"], [" правитель", "ство"], ["жи", "ва"], ["с", "мо"], ["ствен", "ных"], [" Ф", "ин"], [" ко", "гда"], [" ок", "ру"], [" т", "ра"], [" у", "да"], [" э", "та"], ["Ш", "А"], ["ибо", "лее"], ["матри", "ва"], ["ше", "е"], [" 1", "4"], [" С", "СР"], [" Сове", "та"], [" вы", "со"], [" з", "да"], [" кня", "же"], [" под", "дер"], [" про", "ек"], [" те", "о"], ["кон", "ча"], ["т", "но"], ["ти", "во"], [" С", "ША"], [" между", "народ"], [" под", "писа"], [" ц", "ар"], ["ни", "м"], ["о", "е"], ["сту", "пи"], ["ч", "ных"], [" 1", "3"], [" В", "а"], [" С", "а"], [" ве", "ли"], [" ра", "ди"], ["еде", "ра"], ["з", "ов"], ["мен", "т"], ["об", "раз"], [" С", "та"], [" в", "лия"], [" об", "ра"], [" окт", "ября"], [" февра", "ля"], ["II", "I"], ["в", "каз"], ["о", "нов"], ["п", "ей"], [" Во", "сточ"], [" все", "го"], [" года", "х"], [" обе", "спе"], [" по", "з"], [" пра", "ва"], [" фрон", "та"], ["В", "о"], ["во", "з"], ["п", "ов"], ["ра", "я"], ["с", "лу"], [" РС", "ФСР"], [" ка", "че"], [" м", "н"], ["З", "а"], ["бо", "й"], ["го", "тов"], ["сле", "д"], ["ш", "та"], [" В", "ы"], [" ли", "нг"], ["00", "0"], ["ж", "ение"], ["к", "си"], ["че", "й"], [" Т", "ак"], [" гу", "бер"], [" из", "вест"], [" по", "ме"], [" хо", "де"], ["ги", "е"], ["ме", "ча"], ["р", "ё"], ["стви", "е"], [" Ру", "с"], [" Ру", "си"], [" мо", "г"], [" спо", "соб"], ["кре", "п"], ["п", "ла"], ["ствен", "ные"], ["чи", "н"], ["ще", "е"], [" X", "X"], [" Ми", "ха"], [" а", "нг"], [" за", "клю"], [" коми", "те"], [" про", "тиво"], [" ши", "ро"], ["ве", "ка"], ["мо", "й"], [" ", "струк"], [" В", "ладими"], [" Л", "енин"], [" же", "лез"], [" мас", "сов"], [" нача", "ла"], [" не", "об"], [" ос", "вобо"], [" отно", "ш"], ["2", "1"], ["пу", "та"], ["ты", "ва"], [" Д", "о"], [" Ф", "ран"], [" де", "ся"], [" до", "ро"], [" за", "коно"], [" м", "ного"], [" миров", "ой"], [" обла", "сти"], [" руков", "од"], [" с", "ем"], ["те", "м"], [" лиш", "ь"], [" неско", "лько"], [" по", "лови"], [" по", "т"], ["т", "ру"], ["ю", "щей"], [" вну", "трен"], [" про", "дук"], [" рас", "про"], ["в", "шей"], ["при", "мер"], ["с", "нов"], ["че", "ское"], [" К", "у"], [" П", "ро"], [" е", "сть"], [" кон", "ф"], [" о", "конча"], [" ос", "об"], [" пре", "кра"], [" со", "циали"], ["в", "шая"], ["ва", "р"], ["д", "ет"], ["и", "ч"], ["ро", "ме"], ["ц", "ов"], ["яб", "рь"], [" П", "осле"], [" архи", "тек"], [" вре", "мен"], [" д", "ень"], [" значи", "тель"], [" кото", "рая"], [" си", "лы"], [" со", "бы"], [" т", "ова"], ["ли", "рова"], ["с", "ке"], ["ч", "ной"], [" ", "н"], [" б", "и"], [" во", "оружён"], [" по", "ч"], [" при", "ве"], [" чи", "слен"], [" это", "т"], ["де", "ля"], ["ер", "ов"], ["ль", "ные"], ["ми", "на"], ["мы", "х"], ["то", "й"], ["чи", "ва"], [" в", "за"], [" вой", "не"], [" вре", "мени"], [" ко", "манд"], [" линг", "висти"], [" о", "ру"], ["на", "м"], ["ни", "ей"], ["ня", "я"], [" Э", "то"], [" д", "ва"], [" де", "пута"], [" из", "да"], [" кон", "тро"], [" у", "ве"], [" ш", "ко"], ["б", "я"], ["в", "ен"], ["гов", "о"], ["й", "д"], ["не", "м"], ["ри", "ю"], ["су", "т"], [" за", "ко"], [" ка", "за"], [" об", "я"], [" объ", "я"], [" т", "ребова"], ["ло", "жи"], ["п", "ло"], ["хо", "да"], ["щи", "х"], [" 19", "6"], [" ино", "стран"], [" ми", "ра"], [" о", "гра"], [" площа", "ди"], [" слу", "ча"], [" со", "лда"], [" т", "ри"], ["1", "2"], ["б", "ле"], ["ка", "м"], ["ста", "на"], [" А", "н"], [" Ки", "ев"], [" Петро", "гра"], [" б", "ан"], [" го", "д"], [" д", "ере"], [" осу", "ществ"], [" пров", "ед"], ["ви", "ч"], ["логи", "я"], [" 3", "0"], [" д", "р"], [" дан", "ным"], [" исто", "рии"], [" к", "ур"], [" ми", "лли"], [" офи", "циаль"], [" по", "стро"], [" ре", "ги"], [" т", "ран"], ["на", "ча"], ["ова", "я"], ["ста", "в"], ["те", "ги"], [" ", "лав"], [" 19", "7"], [" Н", "ев"], [" м", "уз"], [" по", "да"], [" предста", "ви"], [" про", "грам"], [" с", "ек"], [" у", "твер"], ["д", "ения"], [" М", "о"], [" воен", "но"], [" вы", "с"], [" образова", "ния"], [" по", "ль"], [" про", "це"], [" со", "об"], [" т", "ре"], ["Петербур", "га"], ["ка", "зыва"], ["ли", "ва"], ["ё", "т"], [" ", "—"], [" 1", "6"], [" 2", "5"], [" го", "ло"], [" к", "ни"], [" необ", "ходи"], [" от", "дель"], [" по", "бе"], [" произ", "о"], [" сере", "ди"], [" уча", "сти"], ["1", "0"], ["мо", "сть"], ["н", "ю"], ["рё", "х"], ["ствен", "ный"], ["че", "б"], [" ", "ту"], [" Фин", "ля"], [" Ц", "ент"], [" пар", "тии"], ["2", "2"], ["м", "ет"], ["р", "д"], ["ст", "ри"], ["ш", "ую"], [" Б", "оль"], [" Вели", "ко"], [" в", "вед"], [" г", "ерман"], [" государ", "ств"], [" кото", "рой"], [" мамон", "тов"], [" се", "бя"], [" ю", "ж"], ["го", "р"], ["ж", "ения"], ["ль", "ный"], ["ман", "ду"], ["ю", "за"], [" ", "Ж"], [" ", "сти"], [" арми", "я"], [" в", "ме"], [" кор", "пу"], ["1", "5"], ["би", "ра"], ["г", "ром"], ["го", "род"], ["года", "х"], ["е", "го"], ["м", "ов"], ["мери", "кан"], ["не", "раль"], ["ника", "ми"], ["р", "хи"], ["сте", "ма"], ["фер", "ен"], [" О", "б"], [" б", "ла"], [" бы", "ть"], [" конф", "ли"], [" ро", "ль"], [" ста", "ту"], [" у", "спе"], [" ц", "ен"], ["П", "ри"], ["го", "м"], ["жд", "ение"], ["с", "ло"], ["ходи", "т"], ["ши", "м"], ["щ", "ение"], [" 190", "5"], [" Од", "нако"], [" ин", "тер"], [" ко", "л"], [" команд", "ова"], [" которо", "го"], [" продол", "жа"], [" ста", "л"], ["да", "тель"], ["о", "ны"], ["стви", "я"], ["ты", "х"], [" З", "им"], [" а", "дми"], [" г", "ра"], [" груп", "пы"], [" к", "рас"], [" крепо", "сти"], [" куль", "тур"], [" соб", "ра"], [" совет", "ских"], ["е", "ва"], ["ц", "уз"], [" ", "№"], [" X", "V"], [" Г", "лав"], [" вс", "ё"], [" за", "кон"], [" рабочи", "х"], ["з", "ем"], ["ли", "н"], ["н", "ци"], ["ре", "ц"], [" ", "ря"], [" д", "рев"], [" дву", "х"], [" действи", "я"], [" за", "тем"], [" исто", "ч"], [" ми", "р"], [" разви", "тия"], ["ко", "е"], ["ли", "ча"], ["на", "д"], [" Со", "юз"], [" двор", "ца"], [" пра", "к"], [" с", "евер"], [" с", "реди"], ["19", "4"], ["в", "шего"], ["да", "ми"], ["л", "ению"], ["т", "ные"], ["ши", "й"], ["ющи", "м"], ["я", "ти"], [" ", "ряд"], [" Б", "ал"], [" в", "стре"], [" воен", "ных"], [" воз", "ник"], [" да", "ль"], [" до", "говор"], [" свя", "зи"], [" сто", "ли"], [" ты", "с"], [" ш", "та"], ["К", "а"], ["С", "С"], ["и", "л"], ["ло", "н"], ["ля", "р"], ["но", "мо"], ["та", "р"], ["ти", "рова"], ["ь", "я"], [" Лит", "вы"], [" Ф", "едера"], [" ак", "тив"], [" пред", "по"], [" систем", "ы"], ["ва", "лись"], ["гла", "сно"], ["ж", "ен"], ["лен", "ы"], ["яб", "ре"], [" ", "ло"], [" 192", "0"], [" XI", "X"], [" генера", "л"], [" не", "у"], [" основ", "е"], [" при", "со"], [" со", "с"], [" социаль", "ных"], [" у", "си"], [" фор", "мирова"], [" хозяй", "ства"], [" эти", "х"], ["за", "ции"], ["к", "та"], ["по", "ль"], ["ра", "л"], ["ро", "т"], ["со", "м"], ["ству", "ет"], ["ти", "ли"], [" С", "у"], [" Си", "би"], [" груп", "па"], [" дере", "в"], [" на", "чи"], [" организа", "ции"], [" производ", "ства"], [" с", "мер"], [" стра", "теги"], [" э", "ле"], ["Р", "а"], ["б", "рита"], ["ве", "ро"], ["до", "б"], ["ю", "щего"], [" П", "ре"], [" вне", "ш"], [" во", "сточ"], [" ин", "ститу"], [" о", "п"], [" од", "ной"], [" стро", "итель"], [" у", "би"], ["3", "0"], ["бо", "ра"], ["в", "ёр"], ["г", "г"], ["ди", "на"], ["ди", "я"], ["дов", "оль"], ["мя", "т"], ["раж", "ение"], ["та", "х"], ["ш", "ла"], [" И", "ва"], [" государ", "ство"], [" жи", "во"], [" о", "цен"], [" отно", "шения"], [" первы", "й"], [" совет", "ские"], ["1", "1"], ["де", "сь"], ["и", "мо"], ["ки", "н"], ["ле", "т"], ["та", "м"], ["ту", "а"], [" ", "ев"], [" 199", "0"], [" Велико", "брита"], [" К", "П"], [" Финля", "нди"], [" из", "у"], [" кре", "ди"], [" ме", "то"], [" о", "х"], [" пра", "ви"], [" револю", "цион"], [" си", "л"], [" у", "по"], ["ви", "а"], ["де", "ми"], ["мен", "я"], ["ни", "че"], ["т", "ен"], [" ", "ры"], [" И", "з"], [" ка", "ж"], [" комму", "ни"], [" на", "зна"], [" не", "м"], [" расс", "матрива"], [" рефор", "мы"], [" та", "н"], ["емо", "кра"], ["ре", "й"], ["те", "че"], [" ", "ст"], [" Крас", "ной"], [" Р", "о"], [" Ре", "спубли"], [" ба", "сти"], [" боль", "шин"], [" в", "зя"], [" ва", "ж"], [" да", "же"], [" инте", "ре"], [" мож", "ет"], [" на", "иболее"], [" нача", "ло"], [" по", "каза"], [" промышлен", "ности"], [" ре", "шение"], [" свои", "х"], [" ста", "ла"], [" это", "й"], ["е", "дини"], ["н", "ской"], ["ствова", "ли"], ["та", "н"], ["ци", "а"], ["ш", "ёл"], [" ", "стре"], [" 2", "2"], [" М", "е"], [" Петро", "град"], [" С", "вя"], [" вос", "станов"], [" депута", "тов"], [" е", "ди"], [" ре", "з"], [" си", "стема"], [" ф", "ран"], ["19", "0"], ["д", "ение"], ["ли", "ги"], ["ль", "ных"], ["то", "ром"], ["ц", "ей"], [" П", "етербур"], [" Цент", "раль"], [" государствен", "ной"], [" за", "да"], [" лю", "дей"], [" наступ", "ление"], [" п", "ря"], [" пере", "д"], [" поз", "во"], [" пре", "зи"], [" сво", "ей"], [" сле", "ду"], [" ста", "нов"], [" челове", "ка"], ["О", "б"], ["г", "ре"], ["и", "ли"], ["лен", "а"], ["ме", "ст"], ["ова", "н"], ["тель", "ное"], ["то", "го"], ["то", "ч"], ["фи", "ка"], [" Александ", "ров"], [" Б", "у"], [" г", "и"], [" действи", "й"], [" кня", "зя"], [" некоторы", "х"], [" но", "р"], [" поддер", "ж"], ["ба", "чё"], ["ви", "зи"], ["з", "дан"], ["й", "ти"], ["с", "ред"], ["ф", "а"], [" Бело", "ру"], [" Л", "а"], [" в", "торой"], [" вой", "ну"], [" и", "мен"], [" ли", "тера"], [" м", "ене"], [" ма", "тери"], [" п", "си"], [" под", "готов"], [" рус", "ской"], [" свобо", "д"], ["ба", "йд"], ["ем", "ых"], ["зер", "байд"], ["к", "м"], ["на", "н"], ["не", "рус"], ["р", "ен"], ["фи", "ци"], ["я", "т"], [" Г", "раждан"], [" Украи", "ны"], [" б", "ло"], [" горо", "де"], [" объ", "един"], [" ок", "ку"], [" пре", "до"], [" распро", "стран"], [" со", "держа"], [" со", "кра"], [" тра", "ди"], [" тран", "спо"], [" у", "чи"], [" хо", "тя"], [" что", "бы"], ["19", "9"], ["ла", "н"], ["мо", "м"], ["пер", "вые"], ["ш", "ло"], ["щи", "е"], ["ь", "ю"], [" ", "ла"], [" 194", "0"], [" а", "на"], [" ан", "ти"], [" вы", "ну"], [" ин", "ди"], [" м", "ы"], [" не", "по"], [" о", "дин"], [" ост", "ров"], [" у", "чё"], ["в", "лов"], ["гра", "р"], ["ер", "жа"], ["ка", "деми"], ["ни", "з"], ["пра", "вля"], ["ре", "к"], ["тель", "ные"], ["ти", "ть"], ["ш", "ен"], ["ь", "е"], [" Евро", "пе"], [" Евро", "пы"], [" КП", "СС"], [" П", "ра"], [" Пет", "ра"], [" мене", "е"], [" не", "й"], [" о", "на"], [" об", "у"], [" пров", "оди"], ["1", "4"], ["бо", "ль"], ["и", "ть"], ["й", "ская"], ["н", "ского"], ["оз", "гла"], ["про", "тив"], ["ро", "пей"], ["ствен", "ная"], ["хо", "зяй"], ["ца", "ми"], [" 19", "5"], [" Б", "а"], [" законо", "датель"], [" и", "то"], [" ин", "форма"], [" поч", "ти"], [" при", "нима"], [" ре", "жи"], [" ре", "лиги"], [" слу", "ж"], [" со", "бой"], [" совет", "ской"], [" ста", "ло"], [" у", "чеб"], ["ви", "и"], ["не", "с"], [" 190", "6"], [" Г", "о"], [" Никола", "я"], [" вза", "имо"], [" воен", "ного"], [" за", "во"], [" о", "че"], [" от", "меча"], [" пред", "седа"], [" при", "мер"], [" раз", "ме"], [" уда", "лось"], [" ц", "ель"], ["Р", "осси"], ["г", "ен"], ["ль", "ной"], ["о", "логи"], ["циона", "ли"], ["ч", "у"], [" Г", "ор"], [" К", "ры"], [" Со", "юза"], [" Я", "по"], [" бе", "с"], [" во", "д"], [" зем", "ля"], [" образ", "ом"], [" офи", "ц"], [" п", "ове"], [" по", "ги"], [" по", "пы"], [" ра", "м"], [" рабо", "ты"], [" со", "здан"], [" солда", "т"], [" стра", "не"], [" т", "я"], [" учре", "жд"], [" х", "у"], [" цер", "ков"], ["му", "ще"], ["ра", "жа"], ["ск", "лю"], ["чё", "т"], [" ", "0"], [" Ка", "вказ"], [" за", "щи"], [" импера", "тор"], [" некоторы", "е"], [" обя", "за"], [" осуществ", "ля"], [" полож", "ение"], [" помо", "щ"], [" при", "нци"], [" пров", "озгла"], [" ра", "в"], [" ра", "н"], [" с", "ове"], [" социаль", "ной"], [" фрон", "т"], [" ч", "ер"], [" ч", "у"], ["ер", "ы"], ["л", "ки"], ["не", "р"], ["ра", "ми"], ["ён", "ных"], [" ", "ри"], [" И", "н"], [" дости", "г"], [" дру", "го"], [" земле", "у"], [" м", "ень"], [" мн", "ению"], [" мона", "сты"], [" по", "яви"], [" пол", "ностью"], [" предприя", "тий"], [" про", "д"], [" произ", "води"], [" рабо", "т"], [" с", "ъе"], [" с", "ы"], [" у", "креп"], [" экономи", "ки"], ["1", "6"], ["П", "осле"], ["вших", "ся"], ["и", "х"], ["ни", "вер"], ["ри", "сти"], ["с", "м"], ["ти", "лле"], ["ше", "д"], [" ", "степ"], [" 194", "2"], [" Ка", "за"], [" Север", "ной"], [" Т", "о"], [" Ц", "К"], [" б", "ю"], [" де", "ла"], [" до", "ку"], [" инди", "ви"], [" ком", "п"], [" круп", "ней"], [" мно", "гие"], [" ни", "з"], [" объ", "яви"], [" пер", "вой"], [" фор", "ма"], [" харак", "тер"], [" явля", "ются"], ["бе", "ж"], ["ли", "й"], ["лиза", "ции"], ["лы", "х"], ["ль", "ная"], ["о", "графи"], ["пра", "ви"], ["ступ", "ления"], ["т", "ря"], ["тель", "ного"], ["я", "м"], [" Мос", "ков"], [" Моск", "ве"], [" а", "грар"], [" адми", "нистра"], [" большеви", "ков"], [" даль", "ней"], [" каче", "стве"], [" назва", "ние"], [" па", "ра"], [" пере", "во"], [" политиче", "ской"], [" поме", "щи"], [" про", "бле"], [" разви", "тие"], [" т", "рёх"], ["и", "ча"], ["ль", "ного"], ["не", "в"], ["ни", "рова"], ["р", "ения"], ["раж", "ения"], ["та", "я"], ["те", "т"], ["тель", "ных"], ["ти", "ка"], ["чи", "слен"], ["ш", "ой"], [" 19", "19"], [" 2", "8"], [" XV", "III"], [" Федера", "ции"], [" вс", "ей"], [" де", "л"], [" кня", "зь"], [" нача", "ли"], [" об", "ы"], [" по", "зи"], [" приня", "л"], [" с", "фор"], [" сво", "ю"], ["д", "ент"], ["з", "о"], ["ку", "ль"], ["ни", "ком"], ["ти", "ки"], ["то", "ров"], ["х", "у"], ["ч", "ные"], ["ча", "й"], ["я", "вля"], [" 193", "9"], [" 2", "3"], [" Ар", "м"], [" Герма", "нией"], [" Петрогра", "де"], [" арми", "й"], [" и", "склю"], [" количе", "ство"], [" орга", "ни"], [" от", "сут"], [" си", "туа"], ["Н", "е"], ["П", "а"], ["б", "ро"], ["ку", "п"], ["ль", "ное"], ["м", "б"], ["мен", "та"], ["мы", "е"], ["н", "ская"], ["н", "ский"], ["о", "к"], ["ремен", "но"], ["ску", "с"], ["сто", "й"], ["ч", "ного"], ["че", "ском"], [" 18", "9"], [" 194", "5"], [" Н", "ов"], [" Т", "ур"], [" Ч", "ер"], [" за", "вер"], [" ка", "м"], [" ме", "ся"], [" муз", "е"], [" от", "вет"], [" ох", "ра"], [" площа", "дь"], [" по", "станов"], [" распо", "лага"], ["1", "3"], ["в", "ления"], ["ит", "ле"], ["ка", "тери"], ["ско", "ль"], ["спе", "к"], ["сто", "к"], ["тру", "д"], ["ь", "ё"], ["ю", "щ"], [" ", "―"], [" 18", "6"], [" 194", "3"], [" К", "ре"], [" кол", "лек"], [" кото", "ром"], [" мож", "но"], [" на", "с"], [" ору", "жи"], [" от", "каза"], [" от", "ре"], [" по", "зд"], [" пред", "при"], [" предста", "вля"], [" ре", "аль"], [" сво", "его"], [" ста", "н"], [" управ", "ления"], [" услови", "ях"], [" член", "ов"], ["К", "А"], ["в", "ла"], ["да", "х"], ["еде", "раль"], ["ек", "тив"], ["не", "т"], ["пи", "си"], ["по", "лн"], ["с", "лов"], ["с", "овет"], ["т", "ова"], ["та", "й"], [" ", "/"], [" 5", "0"], [" Ва", "си"], [" Герма", "ния"], [" Е", "катери"], [" вы", "бор"], [" за", "пре"], [" начи", "на"], [" обще", "го"], [" опреде", "ля"], [" полу", "ча"], [" ре", "ш"], [" собствен", "ности"], [" то", "т"], ["в", "шее"], ["вшие", "ся"], ["ев", "раль"], ["и", "ла"], ["ми", "н"], ["па", "да"], ["ста", "ви"], ["тиче", "ская"], ["то", "му"], ["че", "скую"], [" Б", "ы"], [" Государ", "ственной"], [" Д", "ля"], [" Никола", "й"], [" П", "ере"], [" Ю", "ж"], [" б", "ра"], [" выну", "жд"], [" дво", "рец"], [" куль", "туры"], [" отно", "си"], [" по", "те"], [" про", "доволь"], [" раз", "де"], [" середи", "не"], [" спе", "циаль"], [" эк", "с"], ["ве", "сти"], ["з", "ей"], ["ло", "й"], ["са", "д"], ["ствен", "ным"], ["ству", "ют"], ["ф", "ф"], ["ходя", "т"], ["ч", "ный"], [" Во", "л"], [" К", "рон"], [" О", "т"], [" О", "тече"], [" вы", "зва"], [" г", "лу"], [" г", "ру"], [" город", "ов"], [" деятель", "ность"], [" кри", "зи"], [" при", "чи"], [" с", "дела"], [" социо", "логии"], [" у", "каз"], [" у", "нивер"], [" фи", "нан"], ["д", "ор"], ["за", "д"], ["зова", "н"], ["ли", "ма"], ["над", "ле"], ["но", "стей"], ["нов", "ременно"], ["т", "ной"], ["тя", "ж"], ["ф", "ри"], ["хо", "дов"], [" 192", "2"], [" В", "е"], [" Времен", "ного"], [" в", "первые"], [" деятель", "ности"], [" ли", "бо"], [" об", "щ"], [" па", "мят"], [" про", "фе"], [" ра", "нее"], [" ре", "али"], [" си", "м"], [" соста", "ва"], [" уве", "личи"], [" фран", "цуз"], [" че", "л"], ["2", "5"], ["ба", "л"], ["вы", "ше"], ["го", "дов"], ["ла", "ми"], ["ро", "да"], ["с", "сов"], ["ц", "кий"], ["че", "ским"], ["ш", "у"], [" Алек", "се"], [" Д", "а"], [" Кон", "ститу"], [" П", "у"], [" воен", "ной"], [" гла", "ве"], [" капи", "тали"], [" на", "б"], [" насе", "ление"], [" пар", "тий"], [" по", "тери"], [" при", "бы"], [" руб", "лей"], [" с", "ко"], [" с", "лав"], [" у", "гро"], [" у", "каза"], [" ху", "до"], [" част", "ей"], ["2", "3"], ["М", "и"], ["вед", "ения"], ["л", "рд"], ["ли", "на"], ["ль", "зу"], ["мен", "ты"], ["о", "пера"], ["образ", "ова"], ["ра", "зи"], ["ро", "ж"], ["ро", "к"], ["с", "ова"], [" 2", "6"], [" Верхов", "ного"], [" С", "то"], [" а", "виа"], [" д", "ем"], [" е", "сли"], [" за", "виси"], [" и", "скус"], [" кон", "цу"], [" о", "гром"], [" опера", "ции"], [" ост", "рова"], [" отнош", "ений"], [" пери", "о"], [" по", "ряд"], [" рам", "ках"], [" ре", "гу"], [" согла", "сно"], [" соста", "ве"], [" состави", "л"], [" социаль", "ные"], [" тан", "ков"], [" те", "чение"], [" цент", "раль"], ["a", "n"], ["e", "r"], ["гово", "ра"], ["ен", "ные"], ["ж", "ан"], ["м", "лрд"], ["сколь", "ку"], ["щ", "ён"], ["ю", "щая"], [" ", ":"], [" ", "род"], [" Г", "итле"], [" Л", "ат"], [" Поль", "ши"], [" Ч", "е"], [" ар", "тилле"], [" д", "емокра"], [" движ", "ение"], [" испо", "льзу"], [" кон", "ца"], [" на", "зад"], [" не", "о"], [" поги", "б"], [" полити", "ка"], [" при", "надле"], [" пу", "ти"], [" террито", "рию"], [" цель", "ю"], ["4", "0"], ["Л", "и"], ["г", "ей"], ["ж", "де"], ["ма", "я"], ["ми", "р"], ["смо", "тря"], ["сто", "ян"], ["строй", "ки"], ["тиче", "ские"], ["че", "ски"], ["ы", "ми"], [" Граждан", "ской"], [" Д", "он"], [" Н", "о"], [" О", "р"], [" О", "снов"], [" Р", "К"], [" Так", "же"], [" а", "ре"], [" бо", "ев"], [" вопро", "с"], [" государствен", "ных"], [" ди", "визи"], [" до", "пол"], [" ж", "ен"], [" з", "десь"], [" ме", "сте"], [" на", "стоя"], [" образова", "ние"], [" опера", "ция"], [" п", "ы"], [" по", "пу"], [" по", "ст"], [" по", "э"], [" револю", "ция"], [" рус", "ских"], [" с", "лова"], [" ста", "ть"], [" тру", "д"], [" учре", "ждения"], [" ча", "сто"], ["19", "8"], ["вши", "м"], ["ере", "ж"], ["кла", "д"], ["ко", "манду"], ["личи", "е"], ["ре", "та"], ["рован", "ных"], ["ру", "же"], ["ту", "ре"], ["у", "с"], ["ц", "кого"], ["цион", "ные"], ["ш", "ем"], ["ше", "ви"], [" ", ","], [" 1", "00"], [" А", "в"], [" Александ", "р"], [" Запад", "ной"], [" Ли", "тов"], [" Э", "сто"], [" а", "мерикан"], [" б", "рита"], [" генера", "ла"], [" д", "ве"], [" д", "ержа"], [" и", "ни"], [" каж", "до"], [" которо", "е"], [" кра", "й"], [" нача", "лась"], [" немец", "ких"], [" пред", "лож"], [" про", "да"], [" республи", "к"], [" с", "ер"], [" с", "рав"], [" тру", "да"], [" че", "ты"], [" язы", "к"], [" язы", "ка"], ["o", "n"], ["ем", "ые"], ["ен", "ный"], ["лы", "пи"], ["по", "зи"], ["раз", "д"], ["ро", "та"], ["со", "бо"], ["таль", "ян"], ["ти", "ви"], ["то", "к"], ["то", "ро"], ["ч", "ная"], [" ", "ему"], [" 194", "4"], [" 2", "7"], [" Восточ", "ной"], [" Сиби", "ри"], [" име", "ли"], [" ме", "та"], [" од", "но"], [" окру", "га"], [" рус", "ского"], [" с", "ни"], [" сло", "нов"], [" сов", "ер"], [" террито", "рия"], [" част", "ности"], ["в", "ление"], ["зи", "рова"], ["од", "руже"], ["па", "влов"], ["по", "след"], ["ри", "т"], ["ствен", "ное"], ["т", "ного"], ["ц", "ени"], ["ши", "ми"], [" ", "ша"], [" 2", "4"], [" Х", "а"], [" ва", "ря"], [" войска", "ми"], [" импера", "тора"], [" исследова", "ния"], [" ку", "ро"], [" на", "пример"], [" не", "до"], [" немец", "кие"], [" нов", "ой"], [" обще", "ство"], [" полити", "ки"], [" пу", "т"], [" рабо", "та"], [" раз", "ре"], [" руков", "оди"], [" случа", "е"], [" со", "против"], [" социали", "сти"], [" стра", "нах"], [" тя", "ж"], [" ф", "ин"], [" язы", "ков"], ["5", "0"], ["К", "о"], ["е", "вич"], ["е", "з"], ["лы", "е"], ["мен", "а"], ["н", "ские"], ["пло", "ть"], ["ри", "ан"], ["тиче", "ских"], ["ходи", "ли"], ["ч", "ением"], ["ч", "ер"], ["ш", "ки"], ["я", "тся"], [" 18", "3"], [" 4", "0"], [" А", "зербайд"], [" Белору", "ссии"], [" Д", "не"], [" И", "м"], [" С", "тали"], [" Ф", "евраль"], [" б", "ли"], [" в", "з"], [" дво", "ря"], [" изу", "ча"], [" испо", "л"], [" ко", "опера"], [" ли", "тов"], [" мамон", "та"], [" минист", "ер"], [" минист", "ров"], [" нача", "лось"], [" опреде", "лён"], [" про", "тяж"], [" различ", "ных"], [" шко", "лы"], ["до", "к"], ["к", "с"], ["мен", "ь"], ["мы", "м"], ["н", "ные"], ["п", "разд"], ["ру", "ю"], ["ч", "ены"], ["щ", "ен"], [" 198", "9"], [" Александ", "ра"], [" Г", "е"], [" К", "роме"], [" Ру", "сь"], [" Со", "гласно"], [" Совет", "ского"], [" взаимо", "дей"], [" воз", "ра"], [" го", "р"], [" з", "оло"], [" за", "па"], [" капи", "ту"], [" ли", "кви"], [" нача", "ль"], [" непо", "сред"], [" о", "хо"], [" огра", "нич"], [" по", "се"], [" приня", "то"], [" проек", "ту"], [" рас", "ши"], [" распо", "лож"], [" сво", "ё"], [" сель", "ского"], [" собы", "тий"], [" ф", "едераль"], [" х", "ле"], [" це", "лом"], [" ш", "кола"], ["ж", "у"], ["к", "ру"], ["нич", "то"], ["па", "р"], ["ра", "м"], ["ри", "аль"], ["ро", "ссий"], ["си", "я"], ["ё", "тся"], [" 2", "1"], [" Бал", "тий"], [" Гор", "бачё"], [" Д", "рев"], [" Ленин", "град"], [" Ми", "нист"], [" П", "ред"], [" Пре", "зи"], [" С", "одруже"], [" Ц", "ар"], [" Ю", "го"], [" бу", "ду"], [" в", "тор"], [" ве", "с"], [" г", "ар"], [" государ", "ством"], [" деся", "тин"], [" жиз", "нь"], [" измен", "ения"], [" к", "лима"], [" круп", "ных"], [" мог", "ли"], [" на", "ци"], [" народ", "ных"], [" неско", "ль"], [" по", "степ"], [" по", "стоян"], [" приве", "ло"], [" производ", "ство"], [" распо", "ря"], [" республи", "ки"], [" ро", "сси"], [" с", "мо"], [" са", "м"], [" сво", "й"], [" составля", "ет"], [" торгов", "ли"], [" функ", "ции"], ["2", "8"], ["М", "В"], ["М", "а"], ["ва", "ет"], ["ви", "я"], ["ен", "г"], ["кт", "ябрь"], ["л", "га"], ["ли", "и"], ["ли", "т"], ["ло", "г"], ["ми", "и"], ["мо", "р"], ["н", "ных"], ["пас", "ности"], ["ра", "х"], ["раз", "у"], ["ста", "вля"], ["сто", "рия"], ["т", "ка"], ["тель", "ной"], [" В", "торой"], [" Г", "ру"], [" И", "о"], [" М", "ар"], [" Петро", "павлов"], [" Пра", "витель"], [" Финлянди", "и"], [" Фран", "ции"], [" ви", "дов"], [" внутрен", "них"], [" дем", "он"], [" ди", "рек"], [" корпу", "са"], [" ми", "нераль"], [" находи", "тся"], [" од", "ним"], [" офиц", "еров"], [" оче", "ред"], [" пре", "ду"], [" предпо", "лага"], [" пример", "но"], [" ради", "о"], [" различ", "ные"], [" с", "мы"], [" свя", "зан"], [" универ", "си"], ["2", "4"], ["2", "6"], ["во", "м"], ["гра", "нич"], ["д", "ви"], ["ен", "ного"], ["зи", "я"], ["лен", "о"], ["лу", "ч"], ["но", "команду"], ["но", "ст"], ["об", "и"], ["тель", "ность"], [" ", "ну"], [" 192", "1"], [" 198", "8"], [" 6", "0"], [" Д", "вор"], [" Ко", "ми"], [" Лит", "ве"], [" а", "кадеми"], [" вме", "сте"], [" государствен", "ного"], [" долж", "ны"], [" за", "седа"], [" зем", "лю"], [" ле", "то"], [" основ", "ном"], [" пи", "са"], [" пов", "ы"], [" полови", "не"], [" предприя", "тия"], [" с", "выше"], [" свя", "зыва"], [" то", "ч"], [" у", "ничто"], ["ву", "ю"], ["вы", "х"], ["г", "на"], ["ев", "ский"], ["ет", "ро"], ["ния", "х"], ["послед", "ствии"], ["р", "ение"], ["т", "ный"], ["те", "лем"], ["тель", "ный"], [" 201", "5"], [" Великобрита", "нии"], [" К", "МВ"], [" С", "ер"], [" С", "ред"], [" С", "реди"], [" Ч", "а"], [" бла", "го"], [" в", "плоть"], [" в", "ра"], [" во", "лн"], [" вы", "пу"], [" ду", "мы"], [" ев", "ропей"], [" ка", "з"], [" ка", "на"], [" кам", "па"], [" кла", "сси"], [" ко", "ра"], [" мо", "гу"], [" мо", "ло"], [" на", "ходя"], [" независи", "мости"], [" оборо", "ны"], [" по", "скольку"], [" пу", "ть"], [" ра", "за"], [" с", "чёт"], [" тео", "рии"], [" фак", "тически"], [" цер", "кви"], ["u", "s"], ["б", "ов"], ["ва", "л"], ["г", "ля"], ["дми", "рал"], ["ни", "н"], ["со", "юз"], ["спо", "соб"], ["ст", "ров"], ["ц", "ент"], ["че", "ства"], [" 192", "4"], [" 198", "7"], [" 201", "6"], [" Васи", "ль"], [" Верхов", "ный"], [" Л", "е"], [" бо", "е"], [" все", "об"], [" вы", "ше"], [" г", "ео"], [" е", "дин"], [" за", "яви"], [" и", "тальян"], [" кла", "сса"], [" контро", "ль"], [" лингвисти", "ка"], [" ме", "ди"], [" ме", "ста"], [" нау", "к"], [" организа", "ций"], [" раз", "ру"], [" ре", "ши"], [" реги", "она"], [" свя", "за"], [" сов", "мест"], [" совет", "ского"], [" соответ", "ствии"], [" социаль", "ного"], [" уров", "ень"], [" харак", "тери"], [" худо", "же"], [" чи", "нов"], [" чи", "сло"], [" я", "по"], ["2", "00"], ["К", "у"], ["С", "у"], ["б", "ра"], ["ги", "и"], ["ди", "и"], ["ев", "ского"], ["ен", "ский"], ["ку", "ю"], ["л", "к"], ["ле", "га"], ["ля", "ции"], ["ро", "прия"], ["т", "ре"], ["тель", "ная"], ["ти", "ем"], ["тив", "ные"], ["х", "е"], ["шта", "д"], ["щ", "ении"], ["ён", "ные"], [" А", "мери"], [" А", "нд"], [" Ка", "в"], [" Совет", "ской"], [" басти", "она"], [" бло", "ка"], [" во", "ин"], [" воен", "ные"], [" из", "бира"], [" к", "м"], [" ко", "ло"], [" направ", "ления"], [" нов", "ые"], [" первы", "е"], [" присо", "едини"], [" продол", "жи"], [" ро", "ст"], [" с", "ви"], [" с", "лов"], [" с", "лож"], [" созда", "нии"], [" ти", "ту"], [" у", "празд"], [" фло", "т"], [" цент", "ра"], [" че", "го"], [" э", "фф"], ["2", "7"], ["П", "ер"], ["П", "ро"], ["ва", "лся"], ["ва", "ния"], ["воз", "мож"], ["ду", "ш"], ["ен", "ных"], ["ет", "ров"], ["к", "ло"], ["ки", "ми"], ["ко", "ма"], ["ма", "р"], ["не", "ц"], ["па", "ра"], ["ру", "ется"], ["ры", "в"], ["си", "и"], ["сси", "она"], ["те", "го"], ["тиче", "ского"], ["фи", "циаль"], ["ца", "м"], [" 190", "7"], [" 201", "0"], [" Б", "ер"], [" Г", "а"], [" Ка", "к"], [" Каза", "х"], [" О", "н"], [" Т", "ро"], [" бе", "д"], [" в", "ступи"], [" вы", "деля"], [" д", "ене"], [" до", "мо"], [" древ", "нерус"], [" друго", "й"], [" значи", "тельно"], [" ка", "р"], [" конфли", "к"], [" которы", "м"], [" м", "лн"], [" ме", "роприя"], [" на", "ступа"], [" объя", "с"], [" от", "де"], [" правитель", "ством"], [" раз", "но"], [" рефор", "ма"], [" слав", "ян"], [" сох", "рани"], [" су", "б"], ["ар", "ь"], ["б", "ан"], ["ва", "ется"], ["ва", "ться"], ["во", "с"], ["га", "м"], ["ги", "х"], ["де", "б"], ["з", "ян"], ["лы", "й"], ["м", "пи"], ["н", "га"], ["но", "до"], ["о", "бо"], ["ров", "оль"], ["ру", "ет"], ["сто", "ри"], ["те", "х"], ["тель", "ства"], ["ты", "е"], ["ур", "на"], ["ю", "р"], [" ", "V"], [" 17", "6"], [" О", "ктябрь"], [" Ру", "мы"], [" Содруже", "ства"], [" в", "ек"], [" встре", "ча"], [" вы", "де"], [" г", "ре"], [" гар", "низ"], [" д", "ня"], [" дей", "ству"], [" допол", "нитель"], [" ду", "хов"], [" е", "дини"], [" зда", "ние"], [" импера", "три"], [" ини", "циа"], [" иностран", "ных"], [" командова", "нием"], [" кон", "ститу"], [" ма", "ло"], [" мор", "я"], [" направ", "лен"], [" независи", "мость"], [" несколь", "ких"], [" нов", "ых"], [" о", "писа"], [" п", "яти"], [" помощ", "ь"], [" пре", "сто"], [" при", "ходи"], [" про", "стран"], [" раз", "рабо"], [" само", "стоя"], [" сим", "во"], [" соб", "ор"], [" собы", "тия"], [" сто", "рон"], [" сфор", "мирова"], [" цент", "р"], [" числен", "ности"], [" эле", "кт"], [" ю", "го"], ["Б", "е"], ["За", "пад"], ["ар", "ди"], ["ве", "ли"], ["га", "н"], ["ги", "я"], ["д", "лен"], ["д", "ра"], ["да", "м"], ["за", "пад"], ["зна", "ча"], ["ле", "в"], ["ствова", "ло"], ["стро", "итель"], ["ти", "ю"], ["ты", "й"], ["хо", "ды"], ["чи", "л"], ["ё", "в"], [" ", "="], [" 18", "0"], [" 18", "8"], [" Владими", "р"], [" Г", "у"], [" Д", "е"], [" Ду", "мы"], [" На", "ча"], [" анг", "ло"], [" в", "ся"], [" ви", "де"], [" влия", "ние"], [" вы", "ска"], [" государствен", "ный"], [" движ", "ения"], [" до", "пу"], [" ко", "али"], [" лю", "ди"], [" много", "числен"], [" обла", "сть"], [" организа", "ция"], [" основ", "ные"], [" по", "ражение"], [" против", "ника"], [" религи", "оз"], [" с", "пи"], [" сох", "ран"], [" социо", "логи"], [" у", "строй"], [" шта", "ба"], ["Петербур", "ге"], ["во", "е"], ["д", "ро"], ["е", "зд"], ["ене", "раль"], ["ерма", "х"], ["и", "мен"], ["ни", "ку"], ["нов", "ения"], ["од", "зян"], ["по", "р"], ["ре", "до"], [" ", "ци"], [" 2", "9"], [" Вели", "кой"], [" Миха", "ил"], [" Моск", "ву"], [" Н", "Э"], [" вс", "ю"], [" города", "х"], [" до", "м"], [" зда", "ния"], [" име", "ет"], [" ли", "ц"], [" м", "я"], [" му", "зы"], [" наб", "лю"], [" не", "ф"], [" окку", "пи"], [" особ", "енно"], [" пи", "сь"], [" по", "льзова"], [" по", "нима"], [" политиче", "ских"], [" прези", "ден"], [" се", "веро"], [" со", "труд"], [" те", "к"], [" ти", "по"], [" экономи", "ческого"], ["б", "ран"], ["в", "ов"], ["вы", "й"], ["д", "нев"], ["ди", "й"], ["дор", "ов"], ["кан", "дина"], ["ля", "х"], ["ми", "ра"], ["нодо", "рож"], ["об", "ще"], ["одзян", "ко"], ["п", "ли"], ["р", "ю"], ["ра", "ня"], ["ри", "а"], ["ст", "ер"], ["ст", "ской"], ["ствова", "ла"], ["цион", "ных"], ["ч", "реди"], ["чи", "ть"], [" ", "л"], [" ", "хи"], [" 18", "7"], [" 191", "4"], [" 191", "6"], [" X", "II"], [" Ко", "л"], [" Петербур", "г"], [" Росси", "ю"], [" С", "ъе"], [" б", "ере"], [" без", "о"], [" бю", "д"], [" возмож", "ность"], [" восста", "ния"], [" вы", "ступа"], [" до", "ста"], [" ж", "урна"], [" им", "ени"], [" истори", "ографи"], [" ка", "тего"], [" ко", "ман"], [" комите", "т"], [" которо", "му"], [" крестья", "нам"], [" ли", "ч"], [" мо", "мент"], [" народ", "ов"], [" не", "го"], [" о", "ри"], [" о", "станов"], [" обла", "да"], [" од", "ного"], [" оконча", "тельно"], [" по", "с"], [" по", "тер"], [" позво", "ля"], [" профе", "ссиона"], [" рай", "она"], [" ре", "шения"], [" собствен", "ность"], [" та", "кие"], [" ти", "па"], [" тяж", "ё"], [" у", "тра"], [" уров", "ня"], [" участ", "ников"], [" фрон", "те"], [" чи", "сла"], [" числен", "ность"], [" эк", "спе"], [" эти", "м"], [" это", "му"], ["Д", "о"], ["ва", "лась"], ["года", "ря"], ["и", "муще"], ["ков", "ский"], ["ле", "кт"], ["номо", "чи"], ["п", "ров"], ["пера", "тор"], ["рова", "ть"], ["с", "лова"], ["ско", "хозяй"], ["сси", "я"], ["тель", "ности"], ["теля", "ми"], ["ти", "на"], ["ч", "ении"], ["че", "м"], ["чи", "тыва"], ["щ", "ена"], ["ьё", "з"], [" ", "ше"], [" 17", "0"], [" 198", "5"], [" 201", "1"], [" 201", "7"], [" II", "I"], [" А", "дмирал"], [" Ленин", "гра"], [" По", "д"], [" Р", "Ф"], [" арми", "ю"], [" большин", "ство"], [" бу", "дет"], [" включа", "я"], [" ди", "с"], [" зна", "чение"], [" ка", "мен"], [" кон", "тр"], [" ме", "л"], [" на", "пад"], [" наступ", "ления"], [" не", "рав"], [" об", "су"], [" оборо", "нитель"], [" от", "ве"], [" от", "лича"], [" от", "мен"], [" перио", "да"], [" по", "я"], [" помещи", "чь"], [" пот", "реб"], [" представи", "телей"], [" при", "чин"], [" продук", "ции"], [" с", "вер"], [" с", "ме"], [" свобо", "ды"], [" се", "бе"], [" смер", "ти"], [" стату", "с"], [" теле", "грам"], [" учи", "ли"], [" ф", "ла"], [" фло", "та"], [" часть", "ю"], [" э", "по"], [" э", "с"], ["e", "n"], ["К", "и"], ["б", "ереж"], ["в", "лива"], ["вед", "ений"], ["е", "ди"], ["жи", "да"], ["й", "ский"], ["ле", "та"], ["ль", "ным"], ["ре", "т"], ["ристи", "ан"], ["сы", "лки"], ["ти", "л"], ["фика", "ции"], ["ч", "ень"], ["че", "го"], ["ща", "ние"], [" 200", "8"], [" 7", "0"], [" В", "В"], [" Ива", "нов"], [" Т", "и"], [" Февраль", "ской"], [" бо", "га"], [" ва", "риан"], [" ве", "сь"], [" во", "оруж"], [" вы", "бора"], [" глав", "нокоманду"], [" го", "тов"], [" дру", "жи"], [" земле", "вла"], [" капи", "та"], [" ко", "смо"], [" крепо", "ст"], [" не", "возмож"], [" о", "пу"], [" освобо", "жд"], [" от", "ря"], [" по", "доб"], [" прак", "тически"], [" при", "об"], [" пси", "хо"], [" ре", "ки"], [" сви", "де"], [" сель", "скохозяй"], [" сер", "ьёз"], [" со", "оруж"], [" строитель", "ство"], [" та", "м"], [" теле", "ви"], [" то", "л"], [" учрежд", "ений"], [" фа", "са"], [" финан", "сов"], [" фор", "мы"], [" ц", "а"], [" экономи", "ческой"], ["o", "r"], ["О", "снов"], ["б", "ю"], ["бли", "кова"], ["вшей", "ся"], ["вший", "ся"], ["вы", "м"], ["ду", "стри"], ["ен", "ной"], ["за", "ция"], ["мо", "би"], ["ня", "ли"], ["пи", "сы"], ["рова", "ли"], ["ско", "ре"], ["слав", "ян"], ["сти", "ческих"], ["та", "ж"], ["ю", "ри"], ["ю", "щее"], [" 17", "9"], [" 198", "6"], [" А", "фри"], [" Крон", "штад"], [" Кры", "м"], [" Л", "у"], [" Л", "ю"], [" Ми", "нераль"], [" С", "мо"], [" Совет", "ов"], [" Т", "у"], [" Я", "ро"], [" бе", "спо"], [" во", "ло"], [" воз", "вра"], [" восста", "ние"], [" го", "спо"], [" дивизи", "й"], [" до", "ма"], [" дол", "ла"], [" же", "ла"], [" з", "ер"], [" за", "пас"], [" иде", "ологи"], [" коми", "сса"], [" комп", "лек"], [" крестья", "не"], [" не", "боль"], [" о", "то"], [" об", "щей"], [" ок", "руж"], [" очеред", "ь"], [" пол", "номочи"], [" поте", "ря"], [" прав", "ления"], [" право", "слав"], [" пробле", "мы"], [" пут", "ём"], [" рай", "оне"], [" ре", "ша"], [" рус", "ские"], [" со", "един"], [" созда", "ние"], [" сред", "ства"], [" степ", "ени"], [" то", "му"], ["t", "i"], ["Р", "е"], ["Росси", "я"], ["б", "ри"], ["ла", "мент"], ["лиза", "ция"], ["мен", "тов"], ["ми", "мо"], ["н", "ения"], ["н", "ной"], ["ни", "фе"], ["нов", "ь"], ["с", "се"], ["со", "н"], ["сто", "м"], ["сть", "ян"], ["су", "р"], ["тив", "ной"], ["ч", "ено"], ["ё", "ж"], [" 18", "4"], [" 199", "2"], [" 20", "21"], [" Ге", "ор"], [" Д", "аль"], [" Двор", "цов"], [" Отече", "ственной"], [" Р", "одзянко"], [" Р", "юри"], [" Ра", "з"], [" Росси", "йская"], [" Се", "веро"], [" Ста", "в"], [" Т", "ем"], [" У", "чреди"], [" б", "ро"], [" госпо", "д"], [" декаб", "ре"], [" завер", "ши"], [" крепо", "сть"], [" мас", "шта"], [" ме", "ж"], [" ми", "нистра"], [" милли", "онов"], [" на", "де"], [" направ", "лении"], [" но", "си"], [" нов", "ого"], [" обла", "ст"], [" объя", "влен"], [" п", "лен"], [" по", "ко"], [" пре", "вра"], [" принадле", "жа"], [" росси", "йской"], [" сос", "редо"], [" сох", "раня"], [" союз", "ных"], [" сто", "лк"], [" тер", "ро"], [" то", "н"], [" транспо", "рт"], [" у", "ли"], [" февра", "ле"], [" эк", "спо"], ["2", "9"], ["3", "9"], ["В", "се"], ["Г", "осудар"], ["вши", "ми"], ["го", "лов"], ["н", "ских"], ["на", "пример"], ["ну", "ть"], ["с", "сы"], ["са", "ми"], ["ствова", "ть"], ["стой", "чи"], ["ступ", "ление"], ["ту", "ру"], ["х", "ран"], ["хо", "слова"], ["ш", "ему"], ["щи", "й"], ["я", "ть"], [" ", "S"], [" 17", "8"], [" 20", "19"], [" 200", "7"], [" З", "ем"], [" Зим", "него"], [" К", "ар"], [" Миха", "ила"], [" Пер", "вой"], [" Свя", "то"], [" авто", "ном"], [" век", "е"], [" вну", "три"], [" вопро", "сы"], [" государствен", "ные"], [" зем", "лё"], [" из", "об"], [" к", "ры"], [" ки", "но"], [" ко", "манду"], [" м", "ере"], [" мо", "ре"], [" мона", "рхи"], [" о", "собо"], [" о", "хва"], [" пла", "н"], [" по", "ня"], [" прези", "дент"], [" при", "зва"], [" при", "род"], [" пси", "хи"], [" пы", "та"], [" с", "ла"], [" соответ", "ству"], [" ста", "р"], [" у", "кра"], [" участи", "е"], [" янва", "ре"], ["вшая", "ся"], ["вы", "чай"], ["жи", "т"], ["к", "ва"], ["л", "ков"], ["ла", "да"], ["ло", "гов"], ["н", "ё"], ["ни", "ке"], ["но", "логи"], ["рез", "вычай"], ["с", "ен"], ["с", "матрива"], ["са", "н"], ["сто", "ке"], ["сть", "я"], ["т", "ни"], ["та", "к"], ["те", "та"], ["у", "м"], [" А", "л"], [" Бо", "ри"], [" Ви", "зан"], [" Е", "го"], [" Ио", "ан"], [" Лит", "ва"], [" Н", "ор"], [" На", "род"], [" РК", "КА"], [" Э", "ти"], [" во", "ды"], [" и", "гра"], [" конце", "п"], [" меди", "ци"], [" могу", "т"], [" о", "чень"], [" объ", "ек"], [" огра", "ни"], [" орга", "нов"], [" остров", "е"], [" отно", "ся"], [" официаль", "но"], [" перво", "го"], [" пере", "ход"], [" по", "ле"], [" по", "ложи"], [" пре", "имуще"], [" приве", "ли"], [" раз", "ных"], [" ре", "д"], [" ро", "ста"], [" свиде", "тель"], [" сторо", "ну"], [" счита", "л"], [" утвер", "жд"], [" утвер", "жда"], [" ф", "он"], [" член", "ы"], [" экономи", "ке"], ["С", "овет"], ["аль", "ные"], ["в", "шую"], ["во", "го"], ["ден", "ти"], ["поли", "ти"], ["рован", "ные"], ["с", "ков"], ["си", "в"], ["ствен", "ную"], ["тив", "ная"], ["тив", "но"], ["ть", "я"], ["хо", "де"], ["хо", "дом"], ["ющи", "ми"], ["ющих", "ся"], [" ", "."], [" 201", "4"], [" Ан", "тан"], [" В", "енг"], [" Во", "з"], [" Государ", "ств"], [" Евро", "пей"], [" О", "ни"], [" При", "бал"], [" Сто", "лыпи"], [" б", "ит"], [" бо", "мб"], [" в", "ермах"], [" вер", "хов"], [" ви", "д"], [" во", "шли"], [" возмож", "ности"], [" вос", "при"], [" д", "ней"], [" дальней", "шем"], [" дис", "ци"], [" доро", "г"], [" други", "ми"], [" желез", "нодорож"], [" землё", "й"], [" комите", "та"], [" кото", "рую"], [" м", "еры"], [" мно", "же"], [" муз", "ей"], [" нас", "читыва"], [" нау", "ки"], [" ни", "же"], [" основ", "ных"], [" под", "чин"], [" поль", "зу"], [" попу", "ляр"], [" пре", "вос"], [" пре", "ступ"], [" представи", "тели"], [" при", "в"], [" противо", "ре"], [" раз", "гро"], [" ры", "но"], [" с", "бор"], [" с", "на"], [" сем", "ей"], [" спе", "циали"], [" т", "ю"], [" та", "ких"], [" фи", "зи"], ["ви", "ча"], ["ги", "стра"], ["ем", "ый"], ["жа", "й"], ["жен", "ер"], ["ит", "ся"], ["мен", "таль"], ["н", "ен"], ["на", "сти"], ["ни", "зм"], ["об", "е"], ["п", "ере"], ["ре", "волю"], ["ри", "ей"], ["строй", "ка"], ["та", "ции"], ["тиче", "ской"], ["ча", "я"], ["ё", "тр"], [" 200", "0"], [" 200", "9"], [" 8", "0"], [" А", "нг"], [" Адмирал", "тей"], [" В", "ар"], [" Дворцов", "ой"], [" Н", "ово"], [" Не", "зависи"], [" П", "и"], [" борь", "бы"], [" в", "последствии"], [" воен", "ную"], [" вс", "ем"], [" г", "им"], [" г", "ово"], [" глав", "ным"], [" д", "ли"], [" до", "говора"], [" доро", "ги"], [" жен", "щи"], [" живо", "тных"], [" за", "ба"], [" захва", "тили"], [" и", "денти"], [" име", "ют"], [" к", "ру"], [" кон", "ферен"], [" корпу", "с"], [" ли", "дер"], [" милли", "она"], [" мно", "гих"], [" му", "ж"], [" на", "не"], [" народ", "ного"], [" настоя", "щее"], [" нерав", "ен"], [" о", "жида"], [" од", "новременно"], [" окку", "па"], [" оп", "пози"], [" п", "ле"], [" первы", "м"], [" по", "ста"], [" преду", "сматрива"], [" при", "каз"], [" произо", "шло"], [" проис", "хо"], [" противо", "стоя"], [" раз", "мер"], [" ре", "сур"], [" рез", "ко"], [" рефор", "м"], [" россий", "ских"], [" ря", "да"], [" с", "ре"], [" само", "лё"], [" само", "у"], [" сек", "рета"], [" то", "гда"], [" у", "дар"], [" успе", "ш"], [" член", "а"], ["Б", "а"], ["В", "е"], ["Г", "о"], ["Н", "и"], ["С", "а"], ["арди", "ров"], ["би", "р"], ["бур", "г"], ["ва", "лось"], ["вар", "дей"], ["д", "жи"], ["ди", "ли"], ["ен", "ности"], ["ет", "ь"], ["куль", "п"], ["лов", "е"], ["лы", "м"], ["мен", "дан"], ["ни", "тар"], ["номо", "р"], ["об", "лада"], ["р", "ги"], ["сси", "в"], ["ст", "ова"], ["та", "ния"], ["тель", "ную"], ["тель", "ным"], ["ти", "ке"], ["тора", "я"], ["ты", "м"], ["яти", "гор"], [" ", "лё"], [" 192", "3"], [" 201", "3"], [" Г", "ос"], [" Государ", "ственного"], [" М", "он"], [" Н", "ар"], [" П", "ар"], [" П", "ру"], [" Рус", "ской"], [" Си", "но"], [" Ч", "ёр"], [" архи", "манд"], [" ба", "л"], [" боев", "ых"], [" борь", "ба"], [" борь", "бе"], [" бы", "стро"], [" в", "торо"], [" ве", "ков"], [" вме", "сто"], [" воз", "гла"], [" вооружён", "ных"], [" вы", "да"], [" груп", "пи"], [" губер", "на"], [" де", "тей"], [" дерев", "ян"], [" ди", "а"], [" дру", "г"], [" е", "сте"], [" зако", "нов"], [" заня", "ли"], [" землеу", "строитель"], [" испо", "лн"], [" княже", "ства"], [" кон", "струк"], [" кра", "е"], [" кра", "я"], [" ликви", "да"], [" мо", "но"], [" находи", "лись"], [" не", "из"], [" неме", "длен"], [" неу", "да"], [" о", "но"], [" од", "на"], [" окт", "ябре"], [" отдель", "ных"], [" отнош", "ении"], [" пер", "вую"], [" первы", "х"], [" пере", "мен"], [" получи", "ли"], [" прави", "ло"], [" пре", "дела"], [" програм", "ма"], [" проис", "ходи"], [" сво", "им"], [" собра", "ния"], [" согла", "шение"], [" ста", "ро"], [" ти", "пов"], [" требова", "ния"], [" тру", "дов"], [" у", "казыва"], [" у", "мер"], [" фор", "ми"], [" ш", "ер"], ["О", "д"], ["ва", "ла"], ["ва", "ние"], ["во", "сточ"], ["га", "ми"], ["ди", "ть"], ["ек", "т"], ["ле", "г"], ["ли", "бо"], ["ль", "м"], ["м", "ей"], ["нача", "льно"], ["ни", "на"], ["ника", "м"], ["нов", "и"], ["ню", "ю"], ["с", "пи"], ["са", "м"], ["со", "к"], ["сти", "ческой"], ["тера", "тура"], ["цион", "ного"], ["цион", "ный"], ["ч", "ное"], ["щих", "ся"], ["ь", "и"], ["ющ", "ую"], ["я", "сь"], [" ", "R"], [" 1", "000"], [" 18", "5"], [" 193", "0"], [" 199", "3"], [" 5", "00"], [" А", "зии"], [" Арм", "ении"], [" Д", "ек"], [" Кол", "ча"], [" Мо", "лда"], [" Пет", "ров"], [" Север", "ного"], [" Совет", "ский"], [" архиманд", "рит"], [" ба", "таль"], [" бан", "ка"], [" в", "нима"], [" вы", "пол"], [" группи", "ров"], [" дворя", "н"], [" ди", "насти"], [" е", "же"], [" жи", "телей"], [" име", "л"], [" индиви", "ду"], [" информа", "ции"], [" ию", "ле"], [" ка", "ва"], [" кла", "ссов"], [" кня", "зей"], [" ко", "лон"], [" коали", "ции"], [" ком", "па"], [" лингвисти", "ки"], [" ма", "е"], [" националь", "ных"], [" о", "про"], [" объ", "ё"], [" объ", "ём"], [" оконча", "ния"], [" от", "да"], [" от", "личие"], [" пе", "хо"], [" пере", "се"], [" пере", "стройки"], [" пере", "шли"], [" под", "чи"], [" подписа", "н"], [" позво", "ли"], [" полити", "ке"], [" политиче", "ские"], [" получи", "л"], [" после", "ду"], [" пре", "облада"], [" присо", "един"], [" си", "лу"], [" сос", "лови"], [" сотруд", "ниче"], [" социаль", "но"], [" срав", "н"], [" сред", "него"], [" станов", "ится"], [" фрон", "тов"], [" части", "чно"], [" широ", "ко"], [" эфф", "ектив"], ["i", "n"], ["И", "з"], ["М", "е"], ["ва", "н"], ["вшего", "ся"], ["е", "ро"], ["еди", "ня"], ["ени", "на"], ["ень", "ю"], ["ло", "го"], ["лож", "ение"], ["ль", "ци"], ["ми", "я"], ["мы", "й"], ["не", "ш"], ["про", "из"], ["ра", "ба"], ["с", "ной"], ["с", "со"], ["сла", "ва"], ["тиче", "ский"], ["то", "чно"], ["ферен", "ду"], ["х", "ео"], ["ш", "ан"], ["э", "кономи"], [" ", "C"], [" 198", "0"], [" Вели", "кого"], [" Владими", "ра"], [" Времен", "ное"], [" Государ", "ственный"], [" Кон", "стан"], [" Нов", "город"], [" П", "е"], [" Республи", "ки"], [" С", "об"], [" Стали", "н"], [" Украи", "не"], [" а", "та"], [" анг", "лий"], [" б", "ур"], [" бан", "к"], [" большеви", "ки"], [" бомб", "ардиров"], [" волн", "ения"], [" вы", "во"], [" вы", "полн"], [" г", "ер"], [" грани", "цы"], [" дене", "ж"], [" долж", "на"], [" з", "рения"], [" заклю", "ч"], [" ин", "дустри"], [" интере", "сов"], [" кни", "ги"], [" командова", "ние"], [" круп", "ные"], [" кур", "с"], [" лав", "ра"], [" ли", "бе"], [" м", "ен"], [" на", "ционали"], [" нача", "лу"], [" не", "ко"], [" ни", "ми"], [" но", "чь"], [" о", "кра"], [" о", "цени"], [" об", "и"], [" опу", "бликова"], [" ори", "ен"], [" па", "три"], [" по", "р"], [" получи", "ла"], [" помо", "щи"], [" пре", "жде"], [" пред", "лага"], [" предпри", "нима"], [" произо", "шёл"], [" пря", "мо"], [" ради", "ка"], [" распро", "стра"], [" руковод", "ства"], [" рус", "ско"], [" с", "м"], [" сло", "на"], [" сло", "ны"], [" ста", "би"], [" струк", "туры"], [" суб", "ъ"], [" у", "г"], [" управ", "ление"], [" х", "ристиан"], [" э", "ми"], [" экономи", "ческих"], ["Б", "о"], ["Б", "у"], ["В", "Д"], ["Со", "гласно"], ["а", "тр"], ["говор", "ы"], ["е", "зда"], ["ем", "е"], ["ем", "ого"], ["ен", "ное"], ["ж", "ды"], ["зан", "тий"], ["кла", "ды"], ["ку", "ро"], ["ма", "ми"], ["меча", "ния"], ["ни", "ми"], ["ни", "ца"], ["по", "те"], ["ре", "я"], ["ри", "н"], ["рова", "я"], ["с", "ер"], ["соб", "и"], ["ча", "ст"], ["ш", "ению"], ["юр", "к"], [" 17", "3"], [" 196", "0"], [" 197", "0"], [" 20", "22"], [" 9", "0"], [" Ж", "е"], [" Конститу", "ции"], [" Ленингра", "да"], [" Независи", "мых"], [" П", "ятигор"], [" Укра", "ин"], [" Че", "хослова"], [" авто", "моби"], [" би", "в"], [" ва", "лю"], [" вер", "ну"], [" граждан", "ской"], [" грани", "це"], [" де", "ли"], [" демон", "стра"], [" ди", "кта"], [" домо", "хозяй"], [" за", "креп"], [" занима", "ет"], [" и", "муще"], [" интер", "вен"], [" историографи", "и"], [" кора", "б"], [" мар", "те"], [" мас", "с"], [" минераль", "ных"], [" монасты", "рь"], [" музе", "е"], [" н", "ём"], [" находи", "лась"], [" нача", "лом"], [" не", "при"], [" недо", "ста"], [" нов", "ое"], [" нов", "ый"], [" оказа", "лись"], [" оружи", "я"], [" под", "вер"], [" поддер", "жива"], [" после", "дова"], [" председа", "тель"], [" проис", "ходит"], [" ре", "ференду"], [" регу", "лирова"], [" с", "фер"], [" са", "ми"], [" середи", "ны"], [" сле", "д"], [" составля", "л"], [" состоя", "нию"], [" струк", "тур"], [" су", "хо"], [" тре", "ть"], [" упразд", "н"], [" уров", "не"], [" ц", "ели"], [" ча", "сов"], ["t", "h"], ["В", "а"], ["Ли", "тература"], ["О", "Н"], ["бе", "ль"], ["г", "ерман"], ["га", "х"], ["де", "лия"], ["дель", "ных"], ["дет", "ь"], ["до", "й"], ["ем", "ой"], ["ен", "ная"], ["ки", "на"], ["ла", "нд"], ["лу", "г"], ["м", "ь"], ["мо", "тр"], ["н", "ный"], ["п", "лу"], ["п", "ове"], ["по", "д"], ["сса", "жи"], ["стре", "лли"], ["че", "в"], ["ш", "ое"], ["ён", "ный"], [" ", "T"], [" 191", "3"], [" 3", "1"], [" Д", "и"], [" К", "ор"], [" Минист", "ер"], [" Р", "и"], [" Т", "ру"], [" Япо", "нии"], [" а", "э"], [" бе", "лых"], [" безо", "пасности"], [" бо", "я"], [" важ", "ней"], [" ве", "дом"], [" ви", "ды"], [" внеш", "ней"], [" во", "обще"], [" времен", "ем"], [" груп", "п"], [" за", "ме"], [" за", "я"], [" заба", "стов"], [" закон", "чи"], [" занима", "ла"], [" запад", "ных"], [" заяви", "л"], [" иде", "и"], [" ис", "че"], [" ито", "ге"], [" ию", "не"], [" кава", "ле"], [" комму", "ника"], [" лав", "ры"], [" ло", "зу"], [" м", "оби"], [" матери", "а"], [" меся", "цев"], [" мо", "дер"], [" на", "прави"], [" на", "правля"], [" наблю", "да"], [" назва", "ния"], [" ни", "ка"], [" ни", "м"], [" обще", "стве"], [" п", "ен"], [" под", "держа"], [" позд", "нее"], [" послед", "ние"], [" постеп", "енно"], [" пре", "образова"], [" пред", "ме"], [" про", "жива"], [" про", "р"], [" пров", "од"], [" руковод", "ством"], [" ры", "н"], [" с", "каза"], [" са", "мым"], [" само", "го"], [" самоу", "прав"], [" си", "лами"], [" сист", "ему"], [" ситуа", "ции"], [" совет", "ско"], [" спо", "р"], [" сы", "гра"], [" у", "мень"], [" участ", "ков"], [" участи", "я"], [" хозяй", "ство"], [" ца", "ря"], [" ч", "резвычай"], ["а", "мерикан"], ["ва", "ку"], ["ва", "ло"], ["вши", "сь"], ["гра", "ции"], ["ди", "л"], ["ев", "ская"], ["к", "ро"], ["ле", "ко"], ["ложи", "л"], ["ма", "нов"], ["на", "циональ"], ["о", "хран"], ["по", "ле"], ["р", "ми"], ["раж", "да"], ["ря", "ду"], ["т", "реб"], ["цион", "но"], ["ш", "ены"], ["щ", "ено"], ["щи", "м"], ["ён", "ной"], [" ", "M"], [" 17", "5"], [" 201", "2"], [" 4", "5"], [" Алексе", "ев"], [" Антан", "ты"], [" В", "ой"], [" Ви", "ль"], [" За", "ка"], [" Кав", "каза"], [" Л", "ь"], [" Моск", "вы"], [" Петрогра", "да"], [" Со", "циали"], [" а", "п"], [" ар", "ен"], [" архитек", "тора"], [" бы", "вшего"], [" вза", "им"], [" ви", "зантий"], [" влия", "ния"], [" гово", "ри"], [" д", "ет"], [" да", "лее"], [" де", "сан"], [" держа", "в"], [" ди", "ску"], [" достиг", "ну"], [" имен", "но"], [" крупней", "ших"], [" лё", "г"], [" ме", "ха"], [" международ", "ных"], [" мен", "я"], [" ми", "ну"], [" мо", "щ"], [" на", "ко"], [" на", "рода"], [" на", "стро"], [" нем", "цы"], [" о", "казыва"], [" об", "станов"], [" орга", "ны"], [" органи", "зова"], [" ос", "ла"], [" пар", "ти"], [" пар", "тия"], [" пол", "но"], [" поряд", "ке"], [" пра", "зд"], [" при", "о"], [" противоре", "чи"], [" протяж", "ении"], [" проце", "сс"], [" раз", "вер"], [" раз", "личи"], [" рас", "преде"], [" рас", "стре"], [" ре", "пре"], [" руковод", "ство"], [" с", "мен"], [" с", "ро"], [" с", "ф"], [" состави", "ли"], [" составля", "ли"], [" су", "м"], [" т", "ро"], [" тео", "рия"], [" тю", "рь"], [" шер", "сти"], ["190", "7"], ["7", "8"], ["Р", "ус"], ["С", "и"], ["аль", "ных"], ["бю", "ро"], ["в", "ей"], ["ва", "ют"], ["до", "ль"], ["жа", "щих"], ["жу", "а"], ["з", "мом"], ["ков", "и"], ["ку", "па"], ["лож", "ения"], ["ль", "я"], ["мь", "ер"], ["ни", "ть"], ["ня", "ть"], ["пер", "ь"], ["плу", "а"], ["рован", "ной"], ["с", "ми"], ["сов", "е"], ["спо", "л"], ["ст", "я"], ["стви", "ем"], ["тер", "на"], ["ти", "сти"], ["тив", "ных"], ["хо", "м"], ["цион", "ной"], ["че", "скими"], ["шин", "ство"], ["юрк", "гей"], [" 200", "6"], [" 201", "8"], [" Азербайд", "жан"], [" Бы", "ли"], [" В", "ос"], [" Геор", "ги"], [" Д", "ру"], [" Им", "ператор"], [" К", "ер"], [" Ме", "жду"], [" Нев", "ы"], [" О", "ОН"], [" О", "с"], [" Октябрь", "ской"], [" Р", "ей"], [" Т", "ре"], [" У", "з"], [" а", "б"], [" а", "гре"], [" бю", "ро"], [" включа", "ет"], [" внима", "ние"], [" гра", "мо"], [" до", "б"], [" долж", "ен"], [" долж", "ности"], [" жи", "ли"], [" зна", "чения"], [" и", "г"], [" имен", "ова"], [" использова", "лись"], [" исследова", "ний"], [" к", "роме"], [" каза", "чь"], [" ко", "ле"], [" коми", "ссии"], [" конфли", "кт"], [" креди", "това"], [" ле", "са"], [" м", "ер"], [" мест", "ных"], [" н", "ена"], [" нау", "чных"], [" необходи", "мости"], [" нор", "мы"], [" об", "на"], [" обеспе", "чива"], [" обще", "ств"], [" обя", "зан"], [" орга", "н"], [" пись", "мен"], [" по", "ро"], [" полови", "ны"], [" поряд", "ка"], [" пот", "ребова"], [" правитель", "ству"], [" пред", "мет"], [" при", "меня"], [" при", "ро"], [" про", "спе"], [" про", "сто"], [" пу", "тей"], [" рай", "он"], [" рай", "онов"], [" рай", "оны"], [" ро", "да"], [" ро", "ли"], [" современ", "ной"], [" современ", "ных"], [" согла", "си"], [" сокра", "ти"], [" сопротив", "ление"], [" составля", "ла"], [" социо", "ники"], [" сред", "ств"], [" та", "ким"], [" тео", "ре"], [" террито", "риаль"], [" това", "ри"], [" уве", "лич"], [" установ", "лен"], [" хо", "ро"], [" ц", "енно"], [" че", "сть"], [" чем", "пи"], [" шко", "л"], [" э", "ваку"], [" ю", "ге"], ["4", "3"], ["7", "0"], ["e", "s"], ["И", "К"], ["П", "у"], ["При", "мечания"], ["ве", "та"], ["вед", "ение"], ["вер", "к"], ["во", "охран"], ["дов", "лет"], ["дра", "воохран"], ["ер", "т"], ["ет", "ы"], ["же", "та"], ["з", "му"], ["за", "цию"], ["ки", "и"], ["ль", "ской"], ["но", "славян"], ["от", "но"], ["ра", "би"], ["ра", "цию"], ["ри", "го"], ["ри", "ца"], ["ру", "ют"], ["тех", "ни"], ["ти", "вы"], ["щ", "ены"], [" ", "["], [" ", "ов"], [" 3", "00"], [" Вар", "ша"], [" Глав", "ного"], [" Ду", "ма"], [" К", "ур"], [" Лат", "вии"], [" М", "ин"], [" Нор", "ве"], [" П", "ётр"], [" По", "лит"], [" Ра", "бо"], [" Смо", "лен"], [" Совет", "ская"], [" Х", "арь"], [" авто", "ма"], [" артилле", "рий"], [" беспо", "ряд"], [" бла", "годаря"], [" вели", "кого"], [" власть", "ю"], [" войска", "м"], [" вы", "дели"], [" д", "ни"], [" де", "фици"], [" деся", "ти"], [" долла", "ров"], [" желез", "ных"], [" защи", "ты"], [" землеу", "строй"], [" из", "бран"], [" име", "ла"], [" использу", "ется"], [" капиту", "лирова"], [" ко", "ро"], [" коман", "ди"], [" космо", "полити"], [" крас", "ных"], [" крестья", "нами"], [" крестьян", "ских"], [" мета", "л"], [" ми", "ни"], [" моло", "д"], [" музы", "ка"], [" на", "циона"], [" не", "смотря"], [" не", "т"], [" нем", "цев"], [" необходи", "мо"], [" о", "знача"], [" об", "ли"], [" об", "ос"], [" основ", "ной"], [" основ", "ы"], [" от", "ме"], [" охра", "ны"], [" по", "жа"], [" по", "лага"], [" пов", "ин"], [" под", "ход"], [" пре", "вы"], [" проек", "т"], [" ра", "ти"], [" раз", "би"], [" раз", "вёр"], [" с", "кульп"], [" са", "мых"], [" сво", "ём"], [" сло", "жи"], [" составля", "ют"], [" социаль", "ный"], [" столи", "цы"], [" стре", "ми"], [" сухо", "пу"], [" существова", "ли"], [" съе", "зд"], [" тыся", "чи"], [" у", "бе"], [" у", "ро"], [" у", "стана"], [" универси", "тет"], [" услови", "я"], [" че", "ре"], [" четы", "ре"], [" экс", "плуа"], [" экспе", "ри"], [" ю", "ри"], ["a", "r"], ["В", "ы"], ["Г", "ор"], ["Д", "е"], ["С", "сылки"], ["С", "та"], ["а", "в"], ["ва", "ми"], ["ве", "ков"], ["влен", "ы"], ["га", "низа"], ["д", "ении"], ["ев", "ропей"], ["ин", "г"], ["к", "тор"], ["ки", "ну"], ["ки", "стана"], ["ле", "тия"], ["ло", "со"], ["лён", "ных"], ["н", "ная"], ["о", "ли"], ["о", "логии"], ["ру", "дова"], ["слу", "жи"], ["сси", "ю"], ["т", "ле"], ["т", "ная"], ["т", "ную"], ["тиче", "ское"], ["у", "ка"], ["ч", "ена"], ["ч", "ным"], ["ча", "с"], ["щ", "у"], ["ющие", "ся"], [" ", "сту"], [" 200", "5"], [" Азербайд", "жа"], [" Александров", "ич"], [" Бе", "сса"], [" Бесса", "раби"], [" Бо", "лга"], [" Боль", "шой"], [" ВВ", "П"], [" Вы", "бор"], [" Г", "ре"], [" Же", "лез"], [" И", "та"], [" Крас", "ная"], [" М", "у"], [" НЭ", "Па"], [" О", "на"], [" Республи", "ка"], [" Росси", "ей"], [" С", "ей"], [" С", "ов"], [" Та", "джи"], [" Эсто", "нии"], [" а", "л"], [" авгу", "сте"], [" актив", "но"], [" ана", "ли"], [" бли", "з"], [" боль", "шей"], [" в", "скоре"], [" воз", "ро"], [" воспри", "нима"], [" вынужд", "ены"], [" выска", "за"], [" г", "ражда"], [" глу", "бо"], [" де", "кла"], [" де", "ло"], [" до", "бы"], [" дол", "го"], [" домохозяй", "ств"], [" доста", "точно"], [" дости", "га"], [" и", "стре"], [" иденти", "ч"], [" импе", "рия"], [" импера", "тором"], [" к", "ров"], [" кон", "кре"], [" ку", "п"], [" куро", "р"], [" ле", "ги"], [" лето", "пи"], [" литера", "тур"], [" министер", "ства"], [" мо", "гла"], [" напад", "ения"], [" насе", "лением"], [" нау", "ка"], [" начина", "ется"], [" непосред", "ственно"], [" нор", "ма"], [" обеспе", "чения"], [" обще", "ственных"], [" общи", "ны"], [" от", "каз"], [" от", "рица"], [" отмеча", "ет"], [" па", "ссажи"], [" пе", "ча"], [" пер", "вая"], [" перво", "е"], [" пла", "на"], [" по", "па"], [" под", "раз"], [" поддерж", "ку"], [" поэ", "тому"], [" пре", "мьер"], [" при", "каза"], [" при", "мен"], [" про", "па"], [" про", "те"], [" про", "то"], [" пу", "нк"], [" рас", "пу"], [" россий", "ского"], [" само", "держа"], [" сент", "ябре"], [" служ", "бы"], [" состоя", "нии"], [" союз", "ников"], [" сти", "ле"], [" сторо", "не"], [" су", "вер"], [" суще", "ствует"], [" сф", "ере"], [" счита", "ют"], [" съе", "з"], [" та", "кой"], [" террито", "рий"], [" тех", "нологи"], [" това", "ров"], [" укра", "ин"], [" упо", "мина"], [" учеб", "ных"], [" ф", "о"], [" фа", "бри"], [" фор", "ме"], [" фор", "му"], [" хи", "ми"], [" церков", "ь"], [" четы", "рёх"], [" я", "дер"], ["18", "0"], ["6", "5"], ["a", "l"], ["Г", "Б"], ["К", "рас"], ["П", "ере"], ["П", "ре"], ["П", "ред"], ["Петербург", "ский"], ["С", "то"], ["Э", "кономи"], ["г", "ну"], ["е", "мая"], ["зе", "ма"], ["зна", "чи"], ["имен", "ова"], ["к", "ет"], ["ко", "ра"], ["которы", "е"], ["ла", "м"], ["ло", "к"], ["лу", "б"], ["н", "ного"], ["на", "в"], ["нов", "ение"], ["ос", "ков"], ["пла", "ты"], ["ра", "й"], ["рова", "ние"], ["си", "ть"], ["ста", "не"], ["т", "ков"], ["тив", "ный"], ["у", "ма"], ["ц", "ер"], ["ч", "ную"], ["чё", "м"], [" ", "луч"], [" 192", "5"], [" 20", "20"], [" I", "X"], [" А", "кадеми"], [" Во", "оружён"], [" Гитле", "р"], [" Екатери", "ны"], [" К", "ом"], [" Ки", "е"], [" Л", "енина"], [" Петропавлов", "ской"], [" Полит", "бюро"], [" Рус", "ская"], [" Учреди", "тельного"], [" ап", "пара"], [" ар", "хео"], [" в", "ет"], [" в", "новь"], [" в", "ходи"], [" ве", "ро"], [" вла", "дель"], [" воз", "душ"], [" га", "з"], [" га", "ран"], [" гео", "графи"], [" глав", "ный"], [" глу", "би"], [" долж", "ность"], [" ж", "ан"], [" з", "дравоохран"], [" за", "кры"], [" из", "дан"], [" ин", "тен"], [" истори", "ю"], [" исче", "з"], [" ито", "гам"], [" ка", "дет"], [" ка", "зема"], [" количе", "ства"], [" коммуни", "зма"], [" кри", "ти"], [" кризи", "с"], [" ле", "с"], [" мамон", "т"], [" мар", "кси"], [" мест", "ного"], [" ми", "тин"], [" мо", "дели"], [" назна", "ча"], [" наци", "стской"], [" нача", "лись"], [" о", "зе"], [" окт", "ябрь"], [" ору", "дий"], [" от", "став"], [" па", "ла"], [" по", "ло"], [" по", "ражения"], [" побе", "ды"], [" пол", "к"], [" поли", "ции"], [" политиче", "ского"], [" полови", "на"], [" полу", "о"], [" пост", "совет"], [" председа", "теля"], [" раз", "лича"], [" ре", "й"], [" рус", "ский"], [" с", "па"], [" се", "ве"], [" сем", "ьи"], [" систем", "е"], [" созда", "на"], [" созда", "ть"], [" социали", "зма"], [" существова", "ния"], [" т", "вор"], [" т", "рак"], [" та", "й"], [" те", "ат"], [" ту", "нд"], [" у", "з"], [" уби", "й"], [" упо", "треб"], [" хо", "ло"], [" че", "твер"], ["194", "5"], ["199", "1"], ["3", "4"], ["B", "N"], ["S", "BN"], ["o", "l"], ["А", "лек"], ["Б", "оль"], ["И", "стория"], ["К", "ом"], ["Л", "енин"], ["Р", "о"], ["аль", "ной"], ["ви", "ду"], ["ви", "зии"], ["висти", "ка"], ["г", "ер"], ["г", "ли"], ["д", "ных"], ["ен", "ту"], ["ж", "ей"], ["ж", "ет"], ["зд", "нее"], ["зербайд", "жан"], ["зи", "н"], ["ибо", "ль"], ["кре", "пи"], ["кру", "г"], ["ли", "зован"], ["лов", "ек"], ["нг", "е"], ["ни", "ли"], ["от", "я"], ["п", "ят"], ["произ", "вод"], ["ра", "ста"], ["ри", "на"], ["ствен", "ными"], ["ству", "ющих"], ["та", "стро"], ["тель", "ство"], ["ти", "ва"], ["ти", "ла"], ["тив", "ов"], ["фор", "м"], ["ца", "х"], ["ция", "ми"], ["ция", "х"], ["ща", "ется"], ["ще", "ства"], ["ъ", "я"], [" 190", "4"], [" 200", "4"], [" 3", "5"], [" В", "Ц"], [" Все", "россий"], [" Горбачё", "ва"], [" Д", "об"], [" Д", "юркгей"], [" За", "кон"], [" И", "тали"], [" Ита", "лия"], [" Ка", "ре"], [" Ки", "слов"], [" Кислов", "од"], [" М", "ор"], [" Ма", "й"], [" На", "иболее"], [" П", "ос"], [" Петербур", "га"], [" Пред", "седа"], [" Росси", "й"], [" Со", "цио"], [" Ш", "и"], [" боль", "шой"], [" ве", "ду"], [" воен", "ная"], [" вы", "дви"], [" вы", "куп"], [" вы", "са"], [" вы", "ступи"], [" выбора", "х"], [" г", "ен"], [" г", "ло"], [" действи", "е"], [" дисци", "пли"], [" до", "гово"], [" доб", "роволь"], [" други", "м"], [" за", "ру"], [" ин", "вести"], [" источ", "ники"], [" источ", "ников"], [" ка", "нди"], [" каждо", "й"], [" кампа", "нии"], [" канди", "да"], [" ко", "не"], [" контр", "на"], [" кризи", "са"], [" куль", "тура"], [" лю", "бы"], [" мамон", "ты"], [" международ", "ный"], [" мн", "ение"], [" на", "ру"], [" на", "си"], [" находи", "лся"], [" находя", "тся"], [" немедлен", "но"], [" о", "ке"], [" образова", "нии"], [" общи", "х"], [" объяви", "л"], [" оказа", "лась"], [" опера", "ций"], [" особ", "енности"], [" осу", "ще"], [" осуще", "стви"], [" от", "прав"], [" отдель", "ные"], [" пе", "с"], [" по", "ля"], [" пов", "ер"], [" пов", "о"], [" под", "твер"], [" подчи", "ня"], [" пол", "ка"], [" пол", "ков"], [" пол", "ного"], [" полити", "ку"], [" прав", "ов"], [" преимуще", "ственно"], [" при", "сут"], [" прод", "виж"], [" пу", "бли"], [" раз", "гром"], [" режи", "м"], [" режи", "ма"], [" республи", "кан"], [" с", "ей"], [" сло", "н"], [" случа", "ях"], [" сов", "о"], [" сово", "куп"], [" ста", "ви"], [" суще", "ственно"], [" счита", "ется"], [" счита", "ли"], [" те", "атр"], [" у", "стойчи"], [" фор", "м"], [" э", "пи"], [" экономи", "ческая"], [" экономи", "ческие"], ["4", "5"], ["6", "0"], ["6", "4"], ["7", "5"], ["В", "ладими"], ["С", "анкт"], ["в", "лением"], ["в", "ёл"], ["ве", "ке"], ["вед", "ены"], ["ви", "ну"], ["г", "ма"], ["д", "ля"], ["д", "ёт"], ["да", "ли"], ["м", "ян"], ["м", "ён"], ["ни", "тельно"], ["нов", "од"], ["об", "рази"], ["п", "р"], ["ре", "с"], ["ре", "ст"], ["ри", "га"], ["рова", "л"], ["рова", "ния"], ["со", "лю"], ["сто", "ка"], ["т", "ным"], ["ти", "лись"], ["тив", "ное"], ["ц", "кой"], ["цио", "не"], ["ч", "ки"], ["че", "скому"], ["чи", "ли"], [" ", "A"], [" В", "ме"], [" Ве", "бер"], [" Все", "го"], [" Горбачё", "в"], [" Д", "ень"], [" Д", "ми"], [" Запад", "ного"], [" Иоан", "нов"], [" Миха", "й"], [" О", "де"], [" Прези", "ди"], [" Т", "е"], [" Та", "ким"], [" Тру", "бе"], [" Уз", "бе"], [" Э", "ль"], [" Э", "рми"], [" а", "т"], [" аб", "солю"], [" апре", "ле"], [" без", "рабо"], [" борь", "бу"], [" бюро", "кра"], [" вз", "гля"], [" во", "до"], [" во", "спо"], [" воз", "об"], [" вопро", "сов"], [" все", "гда"], [" вы", "ход"], [" герман", "ской"], [" ги", "поте"], [" глав", "ной"], [" д", "ре"], [" дан", "ные"], [" дан", "ных"], [" двор", "це"], [" до", "ми"], [" еди", "но"], [" з", "и"], [" з", "она"], [" за", "ведений"], [" за", "мен"], [" зависи", "мости"], [" зару", "беж"], [" из", "мени"], [" к", "ва"], [" каждо", "го"], [" клима", "та"], [" ли", "нии"], [" ма", "кси"], [" ма", "нифе"], [" мар", "ш"], [" мест", "ные"], [" места", "х"], [" на", "след"], [" нача", "л"], [" не", "ё"], [" немец", "кой"], [" но", "ябре"], [" о", "пас"], [" обще", "е"], [" объяс", "ня"], [" оружи", "е"], [" осла", "б"], [" основ", "ным"], [" основа", "на"], [" основа", "нии"], [" отсут", "ствие"], [" перево", "рота"], [" по", "ступа"], [" погиб", "ло"], [" под", "вод"], [" полож", "ения"], [" попы", "тки"], [" потер", "пе"], [" появи", "лись"], [" пре", "ж"], [" пред", "на"], [" прекра", "щении"], [" при", "води"], [" провед", "ения"], [" провозгла", "ш"], [" програм", "м"], [" продоволь", "ствия"], [" промышлен", "ность"], [" ра", "ско"], [" с", "да"], [" с", "разу"], [" свя", "зь"], [" слу", "жи"], [" сна", "б"], [" со", "бира"], [" собра", "ние"], [" содержа", "ние"], [" созда", "ны"], [" солда", "ты"], [" сравн", "ению"], [" сред", "не"], [" струк", "тура"], [" су", "деб"], [" существова", "ние"], [" счита", "ет"], [" территория", "х"], [" тон", "н"], [" точ", "ки"], [" устана", "влива"], [" уча", "ствовали"], [" ф", "едера"], [" федераль", "ного"], [" формирова", "ние"], [" хле", "б"], [" цент", "ром"], [" шта", "б"], [" элект", "ро"], [" я", "ви"], [" язы", "ке"], ["Алек", "санд"], ["Во", "сточ"], ["Г", "раждан"], ["К", "он"], ["К", "ре"], ["Н", "ов"], ["а", "на"], ["ва", "ются"], ["ви", "н"], ["г", "ель"], ["го", "ды"], ["да", "к"], ["е", "сти"], ["ж", "ении"], ["ж", "но"], ["зи", "ат"], ["ла", "д"], ["ли", "ни"], ["ль", "ского"], ["ль", "ти"], ["лё", "в"], ["ма", "й"], ["мы", "ми"], ["ника", "х"], ["па", "н"], ["пи", "ско"], ["пи", "та"], ["поли", "т"], ["пров", "о"], ["ра", "ди"], ["ре", "ги"], ["ря", "док"], ["се", "д"], ["сер", "ва"], ["сс", "енту"], ["ст", "ых"], ["ствова", "л"], ["сти", "ть"], ["сти", "ческая"], ["стру", "и"], ["стья", "не"], ["т", "ное"], ["т", "ности"], ["те", "ма"], ["ти", "ру"], ["тив", "ного"], ["у", "ко"], ["у", "т"], ["х", "ан"], ["ц", "кая"], ["цион", "ная"], ["че", "ство"], ["ш", "кин"], ["ша", "л"], ["ща", "ния"], ["ъ", "ём"], ["я", "зы"], ["ён", "ными"], [" ", "ей"], [" ", "р"], [" 192", "6"], [" 4", "8"], [" I", "SBN"], [" X", "III"], [" Амери", "ки"], [" Арм", "ян"], [" Б", "и"], [" Бело", "го"], [" Бело", "рус"], [" Боль", "шинство"], [" Виль", "ню"], [" Г", "риго"], [" Гитле", "ра"], [" Д", "ж"], [" Европей", "ской"], [" Зака", "вказ"], [" И", "нди"], [" И", "с"], [" Казах", "стана"], [" Ки", "тай"], [" Констан", "ти"], [" Л", "о"], [" Ла", "до"], [" М", "ан"], [" Моск", "ва"], [" Ро", "стов"], [" Съе", "зд"], [" Э", "та"], [" Юго", "сла"], [" аграр", "ной"], [" ар", "мян"], [" архитек", "тур"], [" б", "рига"], [" бе", "ло"], [" во", "л"], [" вре", "мён"], [" вы", "ража"], [" вы", "хода"], [" г", "ов"], [" га", "зе"], [" гим", "на"], [" голо", "сова"], [" д", "ово"], [" двор", "цов"], [" де", "лега"], [" дерев", "ни"], [" династи", "и"], [" до", "ля"], [" дру", "га"], [" еже", "год"], [" ж", "ерт"], [" законо", "про"], [" захва", "тить"], [" и", "ми"], [" изда", "л"], [" исклю", "чением"], [" испол", "нитель"], [" ка", "би"], [" ка", "д"], [" княже", "ство"], [" контро", "ля"], [" конфли", "кта"], [" ли", "ши"], [" литера", "туры"], [" м", "етро"], [" марш", "ру"], [" множе", "ство"], [" мо", "дель"], [" моно", "поли"], [" нау", "чно"], [" об", "рабо"], [" откры", "т"], [" пен", "си"], [" писа", "л"], [" пла", "нирова"], [" по", "береж"], [" по", "до"], [" по", "кры"], [" по", "ру"], [" по", "ход"], [" по", "явля"], [" пове", "дения"], [" подписа", "л"], [" пози", "ции"], [" помещичь", "их"], [" постоян", "но"], [" превы", "ша"], [" предела", "х"], [" при", "бли"], [" при", "ну"], [" приня", "т"], [" приня", "ть"], [" приходи", "тся"], [" про", "чи"], [" про", "явля"], [" програм", "мы"], [" раз", "деля"], [" ре", "ме"], [" реш", "ений"], [" си", "лой"], [" си", "ль"], [" сни", "зи"], [" созда", "ния"], [" социаль", "ную"], [" сред", "нем"], [" ста", "тисти"], [" стан", "ции"], [" стра", "ной"], [" су", "дь"], [" субъ", "ек"], [" тех", "ники"], [" ти", "пи"], [" транспо", "рта"], [" у", "правля"], [" ус", "луг"], [" участ", "ки"], [" учили", "ща"], [" хо", "да"], [" хозяй", "стве"], [" це", "лей"], [" част", "ных"], [" э", "нер"], ["17", "9"], ["3", "7"], ["a", "t"], ["Граждан", "ская"], ["Д", "а"], ["Л", "е"], ["Ц", "ент"], ["Ч", "ер"], ["аль", "ного"], ["вшее", "ся"], ["д", "виж"], ["д", "ца"], ["де", "л"], ["ж", "ены"], ["з", "ой"], ["кра", "тно"], ["ла", "х"], ["лен", "ных"], ["ло", "га"], ["лов", "ский"], ["ля", "ми"], ["ма", "х"], ["му", "ю"], ["на", "чи"], ["ния", "ми"], ["но", "ми"], ["о", "пи"], ["п", "ря"], ["пад", "ении"], ["пло", "ма"], ["по", "льзова"], ["р", "ского"], ["рак", "цио"], ["ри", "стов"], ["рхи", "и"], ["ры", "й"], ["с", "ро"], ["ст", "ских"], ["стави", "ть"], ["стра", "и"], ["сть", "ю"], ["ти", "п"], ["тив", "у"], ["ты", "ми"], ["х", "ма"], ["ч", "ном"], ["ча", "т"], ["шки", "на"], ["ён", "ность"], [" ", "ль"], [" ", "сты"], [" 193", "6"], [" 3", "4"], [" А", "ф"], [" Б", "ла"], [" В", "од"], [" Великобрита", "ния"], [" Во", "енно"], [" Вы", "со"], [" Г", "ен"], [" Древ", "ней"], [" З", "десь"], [" Зим", "ний"], [" Кре", "стьян"], [" Кронштад", "т"], [" Ме", "ж"], [" Минист", "ров"], [" Од", "новременно"], [" Па", "ри"], [" Пер", "вая"], [" Ра", "стрелли"], [" С", "кандина"], [" Сиби", "рь"], [" Тур", "к"], [" Х", "отя"], [" Харь", "ков"], [" Ц", "ер"], [" Это", "т"], [" а", "м"], [" аре", "стова"], [" артилле", "рии"], [" бан", "ков"], [" боль", "шие"], [" бюд", "жета"], [" вермах", "та"], [" воз", "ника"], [" все", "ми"], [" втор", "г"], [" вы", "мира"], [" вы", "ступ"], [" вы", "шли"], [" герман", "ских"], [" гов", "ор"], [" граждан", "ского"], [" гру", "зов"], [" д", "ове"], [" дву", "мя"], [" де", "кре"], [" дей", "ствовали"], [" ди", "визии"], [" ди", "плома"], [" до", "би"], [" до", "ходов"], [" дости", "жения"], [" ев", "ре"], [" з", "доров"], [" зако", "на"], [" ин", "женер"], [" ин", "ф"], [" институ", "т"], [" интере", "сы"], [" каж", "ды"], [" ки", "ев"], [" ко", "лле"], [" край", "не"], [" ликвида", "ции"], [" мероприя", "тия"], [" мето", "ды"], [" ми", "тро"], [" минист", "р"], [" мо", "не"], [" мо", "ст"], [" мя", "те"], [" направления", "х"], [" о", "пы"], [" обо", "рудова"], [" обсу", "жда"], [" обу", "чения"], [" объедин", "ения"], [" обы", "чно"], [" окру", "жа"], [" опера", "цию"], [" ответ", "ствен"], [" относи", "тельно"], [" пере", "бро"], [" пла", "нов"], [" по", "ка"], [" по", "рядок"], [" пол", "ной"], [" помощ", "ью"], [" предста", "вления"], [" престо", "ла"], [" при", "чём"], [" приходи", "лось"], [" про", "спек"], [" провозгла", "си"], [" продолжа", "ли"], [" промышлен", "ного"], [" промышлен", "ных"], [" противо", "по"], [" рабо", "ту"], [" рабочи", "е"], [" раз", "го"], [" рас", "се"], [" распоря", "жение"], [" расс", "мотр"], [" ре", "дак"], [" ре", "йти"], [" ре", "чи"], [" ри", "за"], [" с", "кандина"], [" само", "й"], [" свои", "ми"], [" служ", "бу"], [" сове", "та"], [" совер", "ш"], [" совет", "ское"], [" сооб", "щения"], [" сопротив", "ления"], [" сосредо", "то"], [" социаль", "ная"], [" сто", "я"], [" су", "д"], [" счита", "ть"], [" т", "ен"], [" тер", "мин"], [" укреп", "ления"], [" уров", "ню"], [" уси", "ли"], [" функ", "ционали"], [" хле", "ба"], [" цен", "ности"], [" част", "ной"], [" э", "ту"], [" эк", "з"], [" эта", "п"], [" я", "р"], ["3", "8"], ["X", "I"], ["i", "s"], ["i", "t"], ["Гор", "бачё"], ["П", "е"], ["П", "ове"], ["С", "евер"], ["бер", "на"], ["во", "ри"], ["г", "ло"], ["го", "й"], ["д", "ением"], ["д", "ной"], ["е", "ха"], ["й", "т"], ["ко", "л"], ["л", "ж"], ["ле", "ка"], ["логи", "ческие"], ["ля", "ция"], ["мен", "но"], ["мо", "но"], ["ни", "цы"], ["о", "до"], ["об", "ра"], ["рова", "ла"], ["рова", "но"], ["с", "ей"], ["с", "чё"], ["след", "ствие"], ["станов", "ление"], ["ти", "ве"], ["тле", "ров"], ["то", "ри"], ["ч", "ными"], ["э", "таж"], [" ", "P"], [" ", "c"], [" ", "жа"], [" ", "нова"], [" ", "строй"], [" 192", "8"], [" А", "ССР"], [" В", "ран"], [" Во", "ды"], [" Д", "ени"], [" Кавказ", "ских"], [" Ки", "рги"], [" Коми", "тет"], [" Лат", "ви"], [" О", "лег"], [" Пет", "ром"], [" По", "л"], [" Поль", "ше"], [" Ро", "манов"], [" С", "П"], [" Ста", "вро"], [" Финлянди", "я"], [" Фран", "ция"], [" Ю", "нга"], [" Япо", "ния"], [" а", "кт"], [" академи", "я"], [" боль", "шое"], [" боль", "шую"], [" бюд", "жет"], [" вер", "сии"], [" вер", "х"], [" воен", "ный"], [" вооружён", "ные"], [" времен", "ных"], [" вы", "зыва"], [" вынужд", "ен"], [" г", "вар"], [" г", "г"], [" г", "енераль"], [" гарниз", "он"], [" голо", "да"], [" город", "ского"], [" дво", "ра"], [" до", "ступ"], [" до", "хода"], [" допу", "ска"], [" е", "писко"], [" з", "им"], [" за", "мет"], [" за", "реги"], [" зареги", "стри"], [" землевла", "дения"], [" земля", "х"], [" значитель", "ной"], [" извест", "ные"], [" императри", "цы"], [" исклю", "чи"], [" использова", "ть"], [" к", "вар"], [" ка", "ра"], [" капитали", "зма"], [" катего", "рии"], [" ко", "мендан"], [" конфлик", "ты"], [" кор", "руп"], [" м", "осков"], [" ма", "тро"], [" массов", "ые"], [" международ", "ной"], [" мест", "ности"], [" мето", "дов"], [" ми", "ровая"], [" многочислен", "ные"], [" на", "писа"], [" называ", "ют"], [" насчитыва", "лось"], [" националь", "ной"], [" начи", "ная"], [" не", "му"], [" не", "од"], [" не", "пре"], [" неод", "но"], [" о", "з"], [" о", "по"], [" о", "форм"], [" обеспе", "чи"], [" органи", "зован"], [" ос", "енью"], [" оста", "ви"], [" от", "меня"], [" относя", "тся"], [" п", "лем"], [" па", "ле"], [" пере", "ста"], [" пере", "шла"], [" повер", "х"], [" под", "ня"], [" поз", "же"], [" получи", "ть"], [" постро", "ено"], [" пот", "ен"], [" появи", "лся"], [" предо", "ставля"], [" предста", "витель"], [" при", "ш"], [" причи", "ной"], [" про", "лета"], [" проводи", "лись"], [" ра", "сти"], [" рабо", "те"], [" ре", "ке"], [" революцион", "ных"], [" ро", "спу"], [" ру", "беж"], [" с", "клад"], [" с", "рок"], [" сель", "ских"], [" слов", "о"], [" совет", "ский"], [" современ", "ного"], [" соответ", "ственно"], [" состави", "ла"], [" состоя", "лось"], [" социалисти", "ческой"], [" спи", "сок"], [" су", "да"], [" существова", "ла"], [" това", "р"], [" торгов", "ля"], [" у", "голов"], [" у", "езд"], [" у", "ско"], [" у", "ста"], [" уч", "реди"], [" учё", "ные"], [" фла", "г"], [" хода", "тай"], [" ц", "вет"], [" чемпи", "она"], [" ш", "тур"], [" эс", "еров"], [" ю", "г"], [" явля", "лся"], ["19", "5"], ["3", "3"], ["6", "6"], ["6", "8"], ["Владими", "р"], ["М", "о"], ["М", "ос"], ["Со", "цио"], ["бе", "жа"], ["вед", "ческом"], ["вед", "ён"], ["ви", "га"], ["воз", "вра"], ["га", "ни"], ["ги", "на"], ["да", "ние"], ["дей", "ствие"], ["ен", "ными"], ["и", "д"], ["к", "лон"], ["ка", "на"], ["ли", "мпи"], ["ли", "ш"], ["ля", "нд"], ["ма", "на"], ["мпи", "ри"], ["н", "ение"], ["нов", "ич"], ["па", "рта"], ["по", "й"], ["рито", "риаль"], ["ров", "ой"], ["рова", "ны"], ["руп", "ней"], ["рь", "е"], ["с", "ве"], ["с", "ных"], ["стро", "м"], ["теля", "м"], ["тин", "ен"], ["ф", "ферен"], ["фи", "льм"], ["фри", "кан"], ["че", "ловек"], ["чё", "р"], ["ш", "ка"], ["ющ", "ем"], ["ён", "ного"], [" ", "ны"], [" ", "…"], [" 15", "0"], [" 192", "7"], [" 199", "6"], [" 8", "5"], [" Во", "стоке"], [" Времен", "ным"], [" Г", "У"], [" Г", "енераль"], [" Гру", "зии"], [" Дне", "пра"], [" Древ", "нерус"], [" Е", "вра"], [" Е", "сли"], [" Ива", "н"], [" Кие", "ве"], [" Крас", "но"], [" Крон", "верк"], [" Кры", "ма"], [" Ку", "бан"], [" Ль", "вов"], [" М", "оне"], [" Н", "К"], [" На", "ры"], [" П", "рав"], [" Поль", "ша"], [" После", "д"], [" Правитель", "ства"], [" Ру", "з"], [" С", "ем"], [" Са", "м"], [" Ставро", "поль"], [" Су", "ще"], [" То", "лько"], [" Тро", "и"], [" Ф", "а"], [" Централь", "ной"], [" Чер", "номор"], [" Ш", "ве"], [" а", "зербайджан"], [" анти", "боль"], [" антиболь", "шеви"], [" безрабо", "ти"], [" бес", "пла"], [" би", "бли"], [" боль", "шим"], [" брита", "нские"], [" бур", "жуа"], [" бы", "вших"], [" вели", "ких"], [" возгла", "вля"], [" вой", "ной"], [" всеоб", "щего"], [" вы", "мер"], [" г", "е"], [" гарниз", "она"], [" голо", "сов"], [" государства", "ми"], [" грани", "цу"], [" губер", "нии"], [" де", "ле"], [" до", "ба"], [" до", "кла"], [" долж", "но"], [" ду", "ма"], [" е", "па"], [" едини", "ц"], [" ж", "ё"], [" за", "лива"], [" зада", "ча"], [" зада", "чи"], [" заклю", "чения"], [" запад", "ной"], [" земле", "делия"], [" император", "ской"], [" индустри", "али"], [" интен", "сив"], [" использова", "ния"], [" исследова", "тели"], [" исто", "рия"], [" ка", "кой"], [" ка", "са"], [" ка", "тастро"], [" кампа", "ния"], [" каче", "ства"], [" кла", "сс"], [" конферен", "ции"], [" крас", "но"], [" ле", "со"], [" ли", "ца"], [" ликви", "ди"], [" лич", "ности"], [" ма", "стер"], [" масшта", "б"], [" мог", "ло"], [" мона", "р"], [" музе", "я"], [" н", "э"], [" на", "гра"], [" на", "личие"], [" на", "сле"], [" националь", "ного"], [" нача", "лся"], [" о", "пол"], [" обла", "стей"], [" обра", "ба"], [" образова", "н"], [" общи", "е"], [" ов", "ла"], [" от", "рас"], [" отнош", "ению"], [" оцен", "ки"], [" по", "сла"], [" по", "хо"], [" пол", "ном"], [" пос", "вя"], [" постанов", "ление"], [" пре", "тен"], [" предпри", "ня"], [" президен", "та"], [" престо", "л"], [" прибы", "ли"], [" провозгла", "ша"], [" продук", "ты"], [" произ", "ведения"], [" ради", "ове"], [" разви", "тых"], [" ре", "ак"], [" регу", "ляр"], [" результа", "там"], [" ресур", "сов"], [" ру", "ках"], [" ря", "дом"], [" с", "ведения"], [" с", "вет"], [" с", "ня"], [" само", "м"], [" свобо", "ду"], [" сем", "ья"], [" сере", "бро"], [" сле", "дова"], [" смы", "сле"], [" со", "м"], [" состоя", "ла"], [" социо", "логия"], [" сред", "ней"], [" ст", "ен"], [" сто", "и"], [" столи", "це"], [" су", "дов"], [" те", "перь"], [" телеви", "дения"], [" тен", "ден"], [" учё", "ных"], [" фи", "лосо"], [" фу", "н"], [" х", "реб"], [" харак", "тера"], [" ценно", "стей"], [" цент", "ре"], [" члена", "ми"], [" школа", "х"], [" э", "т"], [" э", "тно"], [" э", "ше"], [" эле", "менты"], [" эпо", "хи"], [" явля", "лись"], [" язы", "ки"], ["190", "6"], ["3", "5"], ["7", "4"], ["А", "р"], ["Б", "ал"], ["В", "оз"], ["В", "ой"], ["Г", "а"], ["К", "ак"], ["О", "т"], ["Ра", "з"], ["Т", "ак"], ["Ч", "а"], ["в", "се"], ["ве", "л"], ["ви", "ле"], ["ги", "н"], ["ги", "тлеров"], ["го", "судар"], ["говор", "ов"], ["гу", "берна"], ["д", "я"], ["ди", "лись"], ["ев", "ской"], ["ж", "ных"], ["зов", "ы"], ["ит", "ва"], ["ко", "му"], ["куль", "тур"], ["лы", "ми"], ["ль", "е"], ["ль", "ская"], ["ль", "ский"], ["м", "ма"], ["ми", "ли"], ["не", "му"], ["не", "та"], ["ни", "лов"], ["но", "гие"], ["но", "ма"], ["нё", "с"], ["обо", "рот"], ["ос", "по"], ["п", "ления"], ["р", "ма"], ["риа", "та"], ["ру", "жи"], ["ры", "ва"], ["с", "ена"], ["с", "п"], ["слу", "жива"], ["спо", "ло"], ["сса", "м"], ["ста", "ми"], ["став", "ки"], ["т", "ность"], ["т", "ская"], ["тель", "ными"], ["ти", "ров"], ["ты", "ся"], ["ц", "ом"], ["чен", "ных"], ["ш", "о"], ["шеви", "ки"], ["щ", "ую"], [" ", "H"], [" ", "„"], [" 3", "9"], [" 4", "4"], [" Ар", "мии"], [" Б", "рита"], [" Балтий", "ского"], [" Бе", "ла"], [" В", "С"], [" В", "торая"], [" Все", "союз"], [" Г", "К"], [" Дек", "ла"], [" Е", "в"], [" И", "спол"], [" Итали", "и"], [" Колча", "ка"], [" Между", "народ"], [" Не", "смотря"], [" О", "ль"], [" О", "соб"], [" Отече", "ственная"], [" РК", "П"], [" Ра", "с"], [" Румы", "ния"], [" С", "лова"], [" Сей", "час"], [" У", "ста"], [" Украи", "на"], [" Ф", "ё"], [" Централь", "ного"], [" Ч", "и"], [" Ча", "сть"], [" Чехослова", "кии"], [" Ш", "а"], [" а", "спек"], [" анг", "лича"], [" аэ", "ро"], [" ба", "зы"], [" блока", "ды"], [" боль", "ших"], [" в", "води"], [" варя", "г"], [" вла", "стей"], [" влия", "нием"], [" возмож", "но"], [" второ", "го"], [" вы", "раж"], [" вы", "ро"], [" вы", "я"], [" гла", "вы"], [" главнокоманду", "ющим"], [" государствен", "ным"], [" груп", "пу"], [" д", "лин"], [" д", "ра"], [" дирек", "тор"], [" европей", "ских"], [" жё", "ст"], [" з", "ву"], [" за", "рабо"], [" заседа", "нии"], [" землеустроитель", "ных"], [" ин", "ж"], [" институ", "ты"], [" истори", "ки"], [" истори", "ков"], [" истре", "би"], [" к", "то"], [" ка", "н"], [" князь", "я"], [" ко", "нец"], [" коммуни", "зм"], [" кон", "ку"], [" контрна", "ступление"], [" крестьян", "ства"], [" культур", "ные"], [" либе", "раль"], [" ма", "гистра"], [" международ", "ного"], [" мень", "ше"], [" монасты", "ря"], [" на", "вод"], [" на", "иболь"], [" на", "ме"], [" на", "пря"], [" нача", "ть"], [" началь", "ник"], [" не", "доволь"], [" неиз", "беж"], [" неравен", "ства"], [" нов", "ую"], [" оборо", "ну"], [" общи", "н"], [" объяви", "ли"], [" опреде", "ли"], [" орга", "ном"], [" оста", "льные"], [" от", "казыва"], [" от", "прави"], [" от", "ра"], [" оцен", "кам"], [" п", "ять"], [" па", "мя"], [" пер", "ене"], [" перво", "м"], [" перво", "нача"], [" погиб", "ших"], [" под", "ле"], [" подготов", "ки"], [" поддерж", "ке"], [" поддерж", "ки"], [" поме", "щения"], [" послед", "него"], [" потер", "ь"], [" право", "м"], [" предо", "т"], [" предот", "вра"], [" при", "кры"], [" приня", "ли"], [" про", "б"], [" про", "сь"], [" про", "ходи"], [" про", "ходит"], [" провед", "ена"], [" ра", "ст"], [" различи", "я"], [" рас", "пада"], [" рассматрива", "ется"], [" ре", "кон"], [" результа", "ты"], [" рейти", "нге"], [" реме", "слен"], [" республи", "ка"], [" с", "ражения"], [" связа", "ны"], [" со", "бора"], [" со", "зыва"], [" со", "прово"], [" со", "юза"], [" состоя", "лся"], [" союз", "никами"], [" ст", "ены"], [" сто", "ян"], [" столи", "цей"], [" стра", "нами"], [" стро", "я"], [" строитель", "ства"], [" сту", "ден"], [" сты", "ке"], [" ти", "п"], [" титу", "л"], [" у", "довлет"], [" управ", "лении"], [" уча", "сток"], [" ф", "ео"], [" фа", "сад"], [" формирова", "ния"], [" функ", "ций"], [" характери", "сти"], [" хо", "бо"], [" ц", "ена"], [" цар", "ской"], [" чере", "споло"], [" э", "ко"], [" япо", "н"], ["3", "2"], ["4", "2"], ["7", "9"], ["8", "0"], ["8", "8"], ["a", "m"], ["И", "н"], ["М", "ар"], ["Т", "а"], ["Ч", "П"], ["б", "ря"], ["ва", "ль"], ["да", "ния"], ["де", "лы"], ["ель", "д"], ["ен", "ным"], ["ер", "б"], ["ере", "з"], ["же", "в"], ["инг", "вистика"], ["к", "ня"], ["к", "ров"], ["к", "са"], ["ка", "к"], ["ло", "гом"], ["ль", "мов"], ["мен", "ту"], ["му", "лирова"], ["не", "ж"], ["не", "кси"], ["не", "ра"], ["ни", "гов"], ["ни", "зма"], ["ни", "сти"], ["но", "к"], ["ова", "ние"], ["осу", "да"], ["пи", "сь"], ["по", "ля"], ["пре", "д"], ["р", "ский"], ["рова", "на"], ["слен", "ность"], ["со", "мо"], ["ст", "ные"], ["ст", "ые"], ["сту", "ю"], ["су", "ль"], ["ся", "т"], ["т", "ников"], ["т", "чи"], ["тель", "ном"], ["ти", "ло"], ["то", "н"], ["у", "л"], ["ф", "о"], ["ф", "ран"], ["х", "ар"], ["хо", "зя"], ["ч", "ению"], ["чен", "ные"], ["ш", "ого"], ["щ", "ем"], ["ён", "ным"], [" 191", "0"], [" 191", "1"], [" 193", "8"], [" А", "т"], [" Анд", "рея"], [" Бори", "с"], [" Венг", "рии"], [" Выбор", "г"], [" Герма", "нию"], [" Гос", "ду"], [" Е", "С"], [" Е", "ссенту"], [" Евро", "пу"], [" Ж", "и"], [" Желез", "новод"], [" К", "ня"], [" Ки", "ева"], [" Ки", "тая"], [" Киев", "ской"], [" Литов", "ской"], [" Ма", "мон"], [" Мон", "го"], [" Москов", "ского"], [" Н", "КА"], [" НКА", "О"], [" Ор", "ганиза"], [" П", "сков"], [" Па", "мят"], [" Прези", "ден"], [" Р", "я"], [" С", "те"], [" Свя", "того"], [" Се", "ло"], [" Тро", "цкий"], [" Х", "о"], [" Э", "кономи"], [" а", "гро"], [" анти", "гитлеров"], [" архитек", "туры"], [" бе", "зу"], [" в", "виду"], [" в", "ходят"], [" введ", "ены"], [" вели", "кий"], [" взаимодей", "ствия"], [" внутрен", "ней"], [" во", "круг"], [" во", "рота"], [" воз", "ду"], [" втор", "жение"], [" выдви", "ну"], [" выпол", "ня"], [" г", "ро"], [" гре", "ки"], [" дан", "ной"], [" дворян", "ства"], [" ди", "фферен"], [" доку", "мент"], [" доми", "нирова"], [" женщи", "н"], [" з", "оны"], [" за", "ведения"], [" за", "ви"], [" за", "тра"], [" заня", "то"], [" значитель", "ную"], [" из", "мер"], [" измен", "ений"], [" им", "я"], [" ино", "гда"], [" исследова", "телей"], [" истори", "ческой"], [" ка", "мер"], [" капиту", "ляции"], [" кино", "сту"], [" ко", "ор"], [" ко", "сми"], [" ко", "сти"], [" коллек", "тиви"], [" крае", "ведческом"], [" крестьян", "ского"], [" кур", "ти"], [" л", "енин"], [" леги", "ти"], [" ли", "ния"], [" литера", "туре"], [" массов", "ой"], [" мероприя", "тий"], [" ми", "ли"], [" мн", "ения"], [" мор", "ской"], [" на", "дельных"], [" на", "ряду"], [" назна", "чен"], [" нена", "падении"], [" нова", "я"], [" о", "г"], [" о", "со"], [" о", "ши"], [" об", "служива"], [" обеспе", "чить"], [" образ", "у"], [" объек", "тов"], [" ограни", "чива"], [" од", "ному"], [" орга", "нами"], [" ос", "ени"], [" отра", "сле"], [" пе", "тербур"], [" пере", "писи"], [" пла", "ни"], [" пла", "те"], [" плем", "ён"], [" по", "служи"], [" подраз", "де"], [" поли", "цей"], [" послед", "них"], [" поста", "влен"], [" прави", "ла"], [" православ", "ной"], [" пре", "одо"], [" пре", "по"], [" пре", "ступления"], [" при", "шли"], [" прину", "ди"], [" принци", "пи"], [" прио", "станов"], [" проб", "лем"], [" происхо", "ждения"], [" ра", "кет"], [" ра", "циональ"], [" разви", "тии"], [" разно", "образ"], [" рас", "ходов"], [" рати", "фици"], [" ре", "зер"], [" религиоз", "ных"], [" рус", "ским"], [" с", "пу"], [" самоуправ", "ления"], [" связа", "но"], [" си", "льно"], [" ситуа", "ция"], [" сме", "шан"], [" со", "едини"], [" со", "зна"], [" согла", "шения"], [" сопрово", "жда"], [" спо", "рт"], [" стан", "дар"], [" стра", "ну"], [" стре", "м"], [" су", "до"], [" су", "ды"], [" танков", "ых"], [" тем", "пы"], [" тер", "ми"], [" то", "й"], [" това", "ры"], [" транспо", "р"], [" у", "луч"], [" уси", "лия"], [" уч", "ени"], [" участ", "ке"], [" ф", "ено"], [" фин", "но"], [" фор", "си"], [" х", "ро"], [" характери", "зу"], [" цар", "ь"], [" ч", "ёр"], [" чу", "в"], [" э", "мпири"], [" юри", "ди"], [" я", "в"], [" явля", "лась"], ["3", "6"], ["6", "2"], ["6", "9"], ["Б", "рю"], ["И", "м"], ["И", "стори"], ["К", "ор"], ["Ни", "кола"], ["П", "и"], ["П", "од"], ["П", "рав"], ["Р", "у"], ["Т", "ем"], ["Ч", "и"], ["би", "на"], ["в", "клю"], ["ва", "й"], ["во", "к"], ["во", "ло"], ["вы", "ми"], ["гра", "ф"], ["гранич", "ных"], ["д", "вор"], ["д", "емокра"], ["д", "ению"], ["д", "но"], ["дро", "б"], ["е", "вича"], ["ев", "ые"], ["ен", "ос"], ["ж", "ением"], ["ж", "ению"], ["и", "стори"], ["ка", "зу"], ["ко", "р"], ["ком", "му"], ["ле", "б"], ["ли", "зм"], ["ль", "ность"], ["льци", "н"], ["ма", "нитар"], ["ма", "то"], ["мор", "ской"], ["н", "ки"], ["н", "ём"], ["но", "с"], ["о", "коло"], ["о", "фициаль"], ["по", "сто"], ["ре", "би"], ["ри", "л"], ["рован", "ный"], ["рь", "я"], ["се", "ление"], ["сове", "та"], ["сси", "ей"], ["ст", "ки"], ["сто", "го"], ["сто", "рон"], ["ступ", "ки"], ["т", "ский"], ["те", "с"], ["тек", "тора"], ["тер", "риториаль"], ["торо", "е"], ["ф", "он"], ["ф", "ы"], ["фика", "ция"], ["фран", "цуз"], ["хи", "й"], ["ц", "кие"], ["ци", "ал"], ["циаль", "ная"], ["ч", "ка"], ["че", "ром"], ["че", "та"], ["чи", "ны"], ["ш", "ений"], ["ш", "ет"], ["ши", "р"], ["ши", "ст"], ["шта", "б"], ["ъ", "един"], ["ющей", "ся"], [" ", "$"], [" ", ")"], [" ", "E"], [" ", "L"], [" ", "лу"], [" 189", "7"], [" 19", "00"], [" 191", "5"], [" 193", "7"], [" 199", "8"], [" 200", "2"], [" 7", "5"], [" А", "у"], [" Азербайджа", "на"], [" Ал", "ма"], [" Александров", "ича"], [" Вран", "ге"], [" ГК", "ЧП"], [" Доб", "роволь"], [" Дюркгей", "м"], [" И", "го"], [" И", "стория"], [" Кав", "мин"], [" Ла", "в"], [" М", "уз"], [" Минераль", "ных"], [" Москов", "ский"], [" НЭ", "П"], [" Нев", "ской"], [" О", "коло"], [" П", "ор"], [" Пар", "сон"], [" Петроград", "ский"], [" Петроград", "ского"], [" Председа", "тель"], [" Румы", "нии"], [" Рус", "ский"], [" С", "ена"], [" Сер", "ге"], [" Со", "гла"], [" Стали", "на"], [" Та", "й"], [" Ти", "хо"], [" У", "же"], [" Украи", "ну"], [" Ха", "ба"], [" Цар", "ское"], [" ав", "тор"], [" ана", "логи"], [" анали", "з"], [" арми", "ей"], [" бли", "жай"], [" боев", "ые"], [" бу", "д"], [" бу", "ма"], [" бы", "вшей"], [" в", "доль"], [" весь", "ма"], [" взаимодей", "ствие"], [" вне", "с"], [" внеш", "не"], [" во", "рот"], [" во", "шла"], [" воен", "ное"], [" военно", "слу"], [" вы", "вод"], [" вы", "ступления"], [" выбор", "ов"], [" выпу", "ск"], [" выс", "ших"], [" ген", "дер"], [" глав", "ного"], [" глав", "ные"], [" глав", "ных"], [" го", "с"], [" господ", "ству"], [" государствен", "ном"], [" государствен", "ную"], [" гу", "манитар"], [" губер", "ний"], [" да", "ть"], [" до", "полн"], [" доку", "мен"], [" доку", "ментов"], [" ду", "шу"], [" духов", "ен"], [" желез", "ные"], [" жи", "тели"], [" з", "о"], [" за", "бо"], [" за", "жи"], [" за", "крепи"], [" за", "мени"], [" за", "ча"], [" захва", "та"], [" зна", "мени"], [" зна", "ния"], [" и", "еро"], [" императри", "ца"], [" ин", "стру"], [" иностран", "ные"], [" искус", "ства"], [" истори", "к"], [" ком", "мер"], [" ком", "на"], [" комплек", "с"], [" куро", "рт"], [" лидер", "ов"], [" макси", "ма"], [" массов", "ое"], [" милли", "ар"], [" мо", "мента"], [" мо", "раль"], [" мор", "ю"], [" на", "логов"], [" на", "м"], [" на", "мест"], [" на", "ро"], [" на", "ём"], [" насе", "лению"], [" не", "вы"], [" неравен", "ство"], [" неф", "ти"], [" о", "тече"], [" об", "шир"], [" обу", "ча"], [" общ", "ем"], [" объ", "едини"], [" объё", "ма"], [" оккупа", "ции"], [" освобо", "ждения"], [" от", "ступи"], [" от", "чу"], [" отве", "ча"], [" отде", "ления"], [" отношения", "х"], [" охра", "не"], [" оцен", "ке"], [" парти", "зан"], [" патри", "о"], [" пере", "вод"], [" пере", "воз"], [" перево", "рот"], [" по", "лез"], [" по", "раж"], [" пода", "вля"], [" подписа", "ли"], [" политиче", "ская"], [" политиче", "скую"], [" полномочи", "я"], [" попы", "та"], [" послед", "ний"], [" постро", "ен"], [" потреб", "ления"], [" пред", "ше"], [" предлож", "ения"], [" при", "вед"], [" при", "виле"], [" при", "гла"], [" при", "способ"], [" призна", "л"], [" приня", "тия"], [" провед", "ены"], [" провод", "ятся"], [" проек", "та"], [" протяж", "ён"], [" рабо", "тах"], [" работ", "ников"], [" разрабо", "та"], [" рас", "ска"], [" распростра", "ня"], [" распростран", "ение"], [" распростран", "ения"], [" ре", "ста"], [" реали", "зации"], [" реста", "вра"], [" риза", "ли"], [" россий", "ские"], [" ру", "ки"], [" руб", "ля"], [" с", "кры"], [" свя", "зей"], [" свя", "того"], [" сек", "су"], [" си", "н"], [" следу", "ющие"], [" сло", "ну"], [" совет", "ским"], [" социо", "нике"], [" сре", "ды"], [" ста", "рой"], [" ста", "ры"], [" станов", "ятся"], [" стату", "са"], [" телеграм", "му"], [" тех", "ни"], [" тре", "ти"], [" угро", "зой"], [" указ", "ом"], [" успеш", "но"], [" устрой", "ства"], [" устрой", "ство"], [" форма", "льно"], [" фу", "т"], [" цар", "ского"], [" цен", "зу"], [" цент", "ров"], [" центра", "лизован"], [" э", "ли"], [" экономи", "ческое"], [" эта", "пе"], [" язы", "ком"], ["19", "18"], ["19", "22"], ["199", "0"], ["4", "4"], ["4", "8"], ["4", "9"], ["5", "5"], ["a", "s"], ["m", "u"], ["Д", "ля"], ["Д", "рев"], ["З", "и"], ["К", "П"], ["П", "ар"], ["С", "ССР"], ["С", "ер"], ["Цент", "р"], ["Экономи", "ка"], ["аль", "но"], ["аль", "ное"], ["бе", "з"], ["бер", "г"], ["в", "ской"], ["вшую", "ся"], ["д", "ные"], ["дми", "нистра"], ["емо", "е"], ["емо", "сти"], ["жа", "ли"], ["з", "ме"], ["з", "он"], ["зи", "ден"], ["ин", "те"], ["ко", "гда"], ["ко", "зна"], ["ков", "ым"], ["кон", "тро"], ["лли", "ген"], ["ло", "ны"], ["лов", "ой"], ["лове", "ж"], ["лён", "ные"], ["мо", "е"], ["на", "р"], ["нача", "ла"], ["низа", "ции"], ["нист", "ов"], ["но", "логии"], ["о", "му"], ["ов", "оль"], ["ован", "ные"], ["оспо", "соб"], ["па", "де"], ["па", "ми"], ["пар", "ламент"], ["пра", "витель"], ["про", "мышлен"], ["р", "ская"], ["ра", "ла"], ["раз", "вёр"], ["ро", "сса"], ["рован", "ная"], ["с", "ные"], ["с", "штаб"], ["са", "мб"], ["се", "днев"], ["си", "й"], ["сле", "ду"], ["ссам", "бле"], ["стан", "ции"], ["ствен", "ном"], ["ствова", "вших"], ["стро", "ен"], ["т", "ке"], ["т", "ку"], ["т", "ской"], ["ти", "зма"], ["тиче", "ским"], ["у", "ме"], ["ур", "ман"], ["ц", "ар"], ["ц", "о"], ["ц", "овая"], ["че", "му"], ["чи", "й"], [" ", "G"], [" ", "N"], [" ", "o"], [" 191", "2"], [" 192", "9"], [" 199", "4"], [" 4", "7"], [" XX", "I"], [" А", "на"], [" Анг", "лии"], [" Армян", "ской"], [" Ат", "лан"], [" Афри", "ке"], [" Б", "ар"], [" Б", "рест"], [" Болга", "рия"], [" ВЦ", "ИК"], [" Визан", "тии"], [" Вме", "сте"], [" Вой", "ска"], [" Восточ", "ную"], [" Гру", "зи"], [" Д", "ан"], [" Запад", "ную"], [" Минераль", "ные"], [" Михай", "лови"], [" Нев", "ский"], [" Нов", "го"], [" О", "лимпи"], [" Па", "вел"], [" Па", "й"], [" Пай", "п"], [" По", "э"], [" Поль", "шу"], [" Р", "ича"], [" Р", "оди"], [" Ре", "волю"], [" С", "С"], [" СН", "К"], [" Се", "ва"], [" Сева", "сто"], [" Север", "ная"], [" Столыпи", "на"], [" Съе", "зда"], [" Та", "в"], [" Тур", "ке"], [" Фин", "ского"], [" Фран", "цуз"], [" Ц", "а"], [" Ш", "у"], [" Япо", "нией"], [" автома", "гистра"], [" администра", "ции"], [" ан", "самб"], [" б", "ар"], [" ба", "зе"], [" бед", "ности"], [" бес", "пре"], [" библи", "о"], [" бо", "ёв"], [" большеви", "ст"], [" большин", "ства"], [" бы", "ст"], [" в", "клад"], [" в", "спо"], [" в", "ста"], [" в", "тором"], [" ве", "ща"], [" ви", "да"], [" вла", "де"], [" во", "к"], [" во", "ск"], [" возра", "ст"], [" возра", "ста"], [" вок", "за"], [" вопро", "сам"], [" восточ", "ной"], [" вс", "ему"], [" вс", "ём"], [" вступи", "ла"], [" вторг", "лись"], [" вы", "ходе"], [" выбор", "ы"], [" выс", "шего"], [" выска", "зыва"], [" генера", "лом"], [" герман", "ские"], [" гло", "б"], [" город", "ской"], [" груп", "пе"], [" губер", "ниях"], [" ди", "нами"], [" до", "ли"], [" до", "ход"], [" договор", "ы"], [" дружи", "ны"], [" ду", "м"], [" жиз", "н"], [" за", "вод"], [" за", "се"], [" зависи", "мость"], [" заклю", "ча"], [" заня", "ла"], [" зда", "нии"], [" значитель", "ные"], [" и", "ска"], [" извест", "ны"], [" им", "еть"], [" импе", "рией"], [" инициа", "тиве"], [" инте", "ллиген"], [" инте", "ракцио"], [" использова", "ли"], [" кажды", "й"], [" каза", "ков"], [" капита", "ла"], [" кла", "д"], [" км", "²"], [" кол", "хо"], [" командова", "ния"], [" коми", "ссия"], [" кон", "серва"], [" конфлик", "тов"], [" коопера", "тивов"], [" кор", "ре"], [" лав", "рой"], [" ли", "чно"], [" ло", "ка"], [" лю", "бой"], [" лю", "д"], [" ма", "й"], [" место", "ро"], [" ми", "нима"], [" мо", "менту"], [" монархи", "и"], [" монополи", "и"], [" муж", "чин"], [" на", "и"], [" находи", "лось"], [" национа", "лизации"], [" не", "за"], [" не", "значи"], [" нов", "город"], [" о", "зна"], [" о", "сад"], [" об", "стоя"], [" оборонитель", "ная"], [" обраба", "тыва"], [" объявлен", "а"], [" од", "ном"], [" оказа", "лся"], [" оппози", "ции"], [" осуществля", "ли"], [" от", "вер"], [" памят", "ников"], [" пар", "ламент"], [" пере", "говоры"], [" по", "езд"], [" по", "кину"], [" по", "мимо"], [" по", "рт"], [" по", "соби"], [" по", "стра"], [" по", "тому"], [" полуо", "стров"], [" пот", "реби"], [" пра", "вя"], [" правитель", "ств"], [" пре", "сти"], [" пред", "ложил"], [" предна", "зна"], [" президен", "том"], [" преступ", "лений"], [" при", "зы"], [" при", "зыва"], [" приня", "ла"], [" приоб", "ре"], [" про", "шли"], [" прод", "развёр"], [" продук", "тов"], [" пропа", "ган"], [" простран", "ства"], [" простран", "ство"], [" пу", "те"], [" рабо", "чей"], [" работа", "ют"], [" рав", "ни"], [" рав", "но"], [" раз", "вед"], [" раз", "ные"], [" развер", "ну"], [" расс", "матри"], [" ре", "к"], [" реаль", "ности"], [" реги", "оне"], [" ро", "ди"], [" род", "ов"], [" ру", "мы"], [" ру", "си"], [" руководи", "телей"], [" рус", "ская"], [" ря", "де"], [" с", "клады"], [" с", "су"], [" самолё", "тов"], [" ско", "ро"], [" сове", "щание"], [" совер", "ши"], [" согла", "сия"], [" сос", "лов"], [" социаль", "ное"], [" способ", "ствовало"], [" станов", "и"], [" столк", "новения"], [" стре", "лков"], [" сувер", "ени"], [" сфер", "ы"], [" съе", "зда"], [" т", "вёр"], [" те", "ма"], [" тем", "пера"], [" технологи", "й"], [" типо", "логии"], [" у", "во"], [" у", "зна"], [" увеличи", "лся"], [" универси", "те"], [" упо", "р"], [" централь", "ной"], [" чинов", "ников"], [" ш", "ос"], [" э", "тни"], [" эваку", "и"], [" экономи", "ческий"], [" экс", "пан"], [" экс", "пер"], [" экспе", "ди"], ["19", "17"], ["198", "9"], ["3", "1"], ["7", "6"], ["e", "t"], ["i", "g"], ["o", "m"], ["s", "i"], ["ti", "on"], ["Д", "у"], ["Ми", "ха"], ["Н", "о"], ["О", "М"], ["О", "р"], ["Ра", "ди"], ["Ра", "с"], ["С", "м"], ["Сто", "лыпи"], ["Так", "же"], ["Ф", "и"], ["Э", "П"], ["бе", "ли"], ["в", "ского"], ["ви", "л"], ["г", "ент"], ["г", "ру"], ["град", "ская"], ["гу", "сти"], ["де", "кс"], ["дер", "жива"], ["держа", "ть"], ["ди", "а"], ["е", "ра"], ["ез", "дов"], ["ер", "с"], ["ж", "ная"], ["жа", "я"], ["жд", "ении"], ["жи", "ли"], ["з", "ю"], ["за", "х"], ["ис", "ло"], ["й", "ские"], ["ков", "ой"], ["ла", "й"], ["ли", "зма"], ["лиза", "цию"], ["ло", "нов"], ["ль", "ни"], ["ль", "ными"], ["ме", "ра"], ["мента", "рии"], ["ми", "нист"], ["н", "гов"], ["не", "мато"], ["не", "ме"], ["низа", "ция"], ["но", "европей"], ["о", "по"], ["об", "или"], ["по", "рт"], ["по", "сле"], ["пользова", "ния"], ["р", "пи"], ["ра", "чива"], ["ре", "гу"], ["ров", "ень"], ["рок", "ко"], ["са", "х"], ["со", "стоя"], ["со", "цио"], ["т", "вор"], ["т", "ными"], ["т", "ские"], ["те", "ка"], ["те", "о"], ["ти", "к"], ["то", "е"], ["ф", "у"], ["ц", "ена"], ["цио", "нирова"], ["цион", "ным"], ["ч", "ков"], ["чи", "в"], ["чё", "те"], ["щи", "ки"], ["щи", "ков"], ["э", "нер"], ["ён", "ная"], [" ", "B"], [" ", "O"], [" ", "€"], [" 170", "3"], [" 190", "8"], [" 199", "5"], [" 199", "7"], [" 20", "23"], [" 4", "1"], [" 6", "5"], [" I", "V"], [" o", "f"], [" А", "ль"], [" Александ", "ро"], [" Амери", "ке"], [" Ан", "ны"], [" Бо", "лее"], [" Бори", "са"], [" В", "лади"], [" Вели", "кая"], [" Все", "мир"], [" Г", "осуда"], [" Государ", "ственная"], [" Дми", "три"], [" Дон", "ба"], [" И", "менно"], [" Кре", "стьяне"], [" М", "ак"], [" Не", "которые"], [" Пер", "во"], [" Пер", "вые"], [" Пер", "вый"], [" Поэ", "тому"], [" Пра", "во"], [" При", "ня"], [" Прибал", "тики"], [" Пру", "ссии"], [" Республи", "к"], [" Рюри", "кови"], [" С", "тре"], [" СП", "б"], [" Союз", "ом"], [" Сред", "ней"], [" Среди", "зем"], [" Тав", "ри"], [" Финля", "нд"], [" Х", "ор"], [" Э", "фи"], [" Эфи", "опи"], [" Юж", "ной"], [" а", "ссо"], [" агре", "ссии"], [" ан", "некси"], [" антигитлеров", "ской"], [" апре", "ль"], [" арен", "ду"], [" ба", "рокко"], [" бое", "вой"], [" большеви", "ками"], [" бу", "н"], [" в", "следствие"], [" в", "ходили"], [" ве", "дения"], [" ви", "дах"], [" воен", "ным"], [" военнослу", "жащих"], [" возник", "ла"], [" вой", "н"], [" восстанов", "ление"], [" встре", "че"], [" вы", "йти"], [" вы", "пла"], [" горо", "дом"], [" д", "емо"], [" дене", "г"], [" десан", "т"], [" деятель", "ностью"], [" долж", "ност"], [" достиг", "ли"], [" древнерус", "ского"], [" дру", "гу"], [" едино", "лич"], [" за", "л"], [" за", "мы"], [" заво", "ева"], [" зада", "ч"], [" зако", "ны"], [" законопро", "ек"], [" затра", "ги"], [" зача", "стую"], [" здравоохран", "ения"], [" зер", "на"], [" и", "дёт"], [" и", "ско"], [" иде", "ологии"], [" иеро", "мо"], [" из", "гна"], [" име", "лись"], [" инж", "енера"], [" инициа", "тиву"], [" искус", "ство"], [" использова", "ние"], [" истори", "ческих"], [" ка", "ких"], [" казема", "ты"], [" княже", "ств"], [" ком", "пози"], [" конститу", "ции"], [" контро", "лирова"], [" концеп", "ции"], [" лето", "писи"], [" ли", "де"], [" м", "лад"], [" ма", "сси"], [" мас", "сы"], [" массов", "ых"], [" миров", "ого"], [" мо", "нет"], [" молод", "ё"], [" молодё", "жи"], [" на", "именова"], [" на", "ка"], [" наб", "ереж"], [" не", "га"], [" невозмож", "но"], [" ней", "т"], [" нейт", "раль"], [" неодно", "кратно"], [" нов", "ым"], [" о", "па"], [" о", "чи"], [" о", "щу"], [" об", "ер"], [" об", "нов"], [" област", "ях"], [" обра", "ща"], [" обра", "щение"], [" обще", "ственного"], [" объедин", "ение"], [" огранич", "ения"], [" од", "ержа"], [" окру", "гов"], [" основ", "ная"], [" основ", "у"], [" оста", "тки"], [" от", "ды"], [" от", "ража"], [" от", "ста"], [" отказа", "лся"], [" офиц", "ер"], [" п", "етро"], [" п", "я"], [" памят", "ник"], [" памят", "ники"], [" патри", "ар"], [" пере", "говоров"], [" переда", "ть"], [" пи", "тания"], [" пла", "не"], [" пла", "т"], [" по", "стави"], [" по", "то"], [" побе", "ду"], [" пов", "седнев"], [" пове", "дение"], [" повин", "ности"], [" под", "ви"], [" под", "чёр"], [" подвер", "га"], [" подчёр", "ки"], [" пол", "ное"], [" полномочи", "й"], [" получи", "ло"], [" помещи", "ков"], [" попы", "тка"], [" права", "х"], [" пред", "ы"], [" предлож", "ение"], [" председатель", "ством"], [" преды", "ду"], [" при", "да"], [" приказа", "л"], [" пример", "у"], [" принима", "ет"], [" приня", "та"], [" про", "тектора"], [" произо", "шли"], [" пролета", "риата"], [" проспе", "кта"], [" проце", "сса"], [" проце", "ссе"], [" психо", "логи"], [" ра", "ве"], [" рабо", "чего"], [" раз", "дели"], [" разви", "тием"], [" разно", "образи"], [" разре", "ша"], [" расши", "рение"], [" ре", "ко"], [" ре", "кру"], [" ре", "чь"], [" револю", "ционе"], [" рекон", "струк"], [" ресур", "сы"], [" ро", "з"], [" с", "еть"], [" с", "ке"], [" с", "пра"], [" с", "фе"], [" свобод", "ной"], [" се", "лений"], [" се", "ти"], [" севе", "ре"], [" сель", "ской"], [" си", "гна"], [" склад", "ча"], [" совет", "ская"], [" содержа", "ния"], [" соедин", "ения"], [" сосредо", "точ"], [" составля", "ло"], [" сохран", "ение"], [" сохран", "ении"], [" социо", "ни"], [" способ", "ствовали"], [" столи", "цу"], [" стра", "ти"], [" съез", "де"], [" т", "реб"], [" типо", "логи"], [" торгов", "ого"], [" тран", "с"], [" тру", "ды"], [" у", "про"], [" у", "стран"], [" установ", "ить"], [" учили", "ще"], [" ф", "рак"], [" фев", "раль"], [" фено", "мен"], [" финан", "си"], [" фун", "да"], [" функ", "ция"], [" фут", "бо"], [" хоро", "шо"], [" ц", "ены"], [" четвер", "ти"], [" член", "ом"], [" чу", "ть"], [" шос", "се"], [" экспо", "рта"], [" эпо", "ху"], [" ю", "га"], [" язы", "козна"], ["0", "3"], ["194", "1"], ["194", "4"], ["4", "1"], ["e", "d"], ["e", "l"], ["h", "e"], ["r", "i"], ["r", "u"], ["Б", "ар"], ["В", "и"], ["Д", "Р"], ["Ка", "вказ"], ["Мос", "ква"], ["П", "К"], ["Р", "ы"], ["С", "ель"], ["С", "реди"], ["Т", "О"], ["Т", "е"], ["Т", "и"], ["Т", "ро"], ["б", "ла"], ["ба", "росса"], ["би", "ли"], ["вая", "сь"], ["ве", "з"], ["вед", "ли"], ["вклю", "чая"], ["возвра", "тные"], ["вшим", "ся"], ["де", "в"], ["ди", "е"], ["ди", "лся"], ["дов", "и"], ["дова", "я"], ["ельд", "мар"], ["ем", "ель"], ["ем", "ле"], ["ем", "ы"], ["ен", "ского"], ["жд", "ений"], ["жи", "вать"], ["жи", "ть"], ["запад", "ном"], ["й", "ка"], ["й", "ских"], ["к", "ри"], ["ки", "стан"], ["кня", "же"], ["ков", "ые"], ["кова", "я"], ["ла", "сти"], ["лен", "ная"], ["ло", "е"], ["ль", "ном"], ["ля", "н"], ["ма", "ли"], ["н", "го"], ["на", "у"], ["над", "ца"], ["ни", "л"], ["ни", "цей"], ["ния", "м"], ["о", "логия"], ["о", "си"], ["ова", "ния"], ["ова", "ть"], ["па", "ния"], ["писа", "ние"], ["по", "лу"], ["по", "рта"], ["про", "чем"], ["р", "ку"], ["р", "ские"], ["ран", "спо"], ["ре", "ва"], ["ро", "з"], ["ру", "щё"], ["с", "ем"], ["с", "лом"], ["с", "ного"], ["со", "на"], ["ст", "би"], ["ст", "ями"], ["ству", "ющие"], ["ству", "ющий"], ["т", "ном"], ["т", "ского"], ["та", "цию"], ["тель", "ских"], ["ти", "зации"], ["ти", "ку"], ["тинен", "таль"], ["тов", "ой"], ["у", "строй"], ["ф", "ли"], ["ху", "д"], ["це", "ля"], ["ша", "ф"], ["щ", "ению"], ["э", "н"], ["ю", "те"], ["ён", "ное"], [" 183", "7"], [" 195", "7"], [" 196", "5"], [" 197", "7"], [" 200", "1"], [" 200", "3"], [" 3", "2"], [" 3", "7"], [" 4", "9"], [" 9", "78"], [" А", "б"], [" Азербайджан", "ской"], [" Ба", "ку"], [" Бе", "ловеж"], [" Бела", "ру"], [" В", "М"], [" ВВ", "С"], [" Василь", "евского"], [" Вильню", "с"], [" Во", "лы"], [" Вранге", "ля"], [" Времен", "ный"], [" Вы", "с"], [" Г", "али"], [" Г", "орь"], [" Глав", "ный"], [" Го", "род"], [" Д", "ви"], [" Декла", "рацию"], [" Е", "щё"], [" З", "начи"], [" И", "х"], [" К", "ГБ"], [" К", "ри"], [" Ка", "ли"], [" Киев", "ская"], [" Ли", "тей"], [" М", "ВД"], [" М", "С"], [" М", "ногие"], [" М", "оло"], [" Май", "ерс"], [" Министер", "ства"], [" Мо", "нома"], [" Молда", "вии"], [" Москов", "ской"], [" Не", "ве"], [" Нев", "ского"], [" Нев", "у"], [" Норве", "гии"], [" О", "ста"], [" Основ", "ные"], [" П", "обе"], [" П", "ов"], [" Па", "в"], [" Па", "вла"], [" Памят", "ник"], [" Поль", "шей"], [" Пос", "поли"], [" Правитель", "ство"], [" Президен", "та"], [" Се", "ми"], [" Сер", "гей"], [" Сино", "д"], [" Сино", "да"], [" Скандина", "вии"], [" Столыпи", "н"], [" Таджи", "кистана"], [" То", "гда"], [" Трубе", "цкого"], [" Турк", "мени"], [" У", "каз"], [" Ф", "и"], [" Централь", "ный"], [" Яро", "слава"], [" авиа", "ции"], [" авиа", "ция"], [" ак", "цен"], [" ана", "рхи"], [" б", "ер"], [" б", "из"], [" благо", "прия"], [" бо", "й"], [" бога", "т"], [" большеви", "кам"], [" большин", "стве"], [" брита", "н"], [" бы", "вший"], [" в", "вёл"], [" в", "ступления"], [" важней", "ших"], [" введ", "ён"], [" взя", "ть"], [" вла", "дения"], [" вне", "д"], [" во", "сток"], [" волн", "ений"], [" вос", "производ"], [" воспо", "мина"], [" восстанов", "ить"], [" вра", "ч"], [" вы", "рази"], [" выс", "шее"], [" высказа", "лись"], [" высо", "кий"], [" высо", "ко"], [" г", "ря"], [" газе", "та"], [" горо", "ду"], [" город", "ских"], [" гра", "ф"], [" грани", "цах"],
[...]
