{"type": "bpe", "tokens": ["<pad>", "<bos>", "<user>", "<assistant>", "<end>", "<memory>", "<unknown>", "\t", "\n", " ", "!", "\"", "#", "$", "%", "&", "'", "(", ")", "*", "+", ",", "-", ".", "/", "0", "1", "2", "3", "4", "5", "6", "7", "8", "9", ":", ";", "<", "=", ">", "?", "@", "A", "B", "C", "D", "E", "F", "G", "H", "I", "J", "K", "L", "M", "N", "O", "P", "Q", "R", "S", "T", "U", "V", "W", "X", "Y", "Z", "[", "\\", "]", "^", "_", "`", "a", "b", "c", "d", "e", "f", "g", "h", "i", "j", "k", "l", "m", "n", "o", "p", "q", "r", "s", "t", "u", "v", "w", "x", "y", "z", "{", "|", "}", "~", "§", "«", "­", "°", "³", "·", "º", "»", "½", "é", "ë", "ó", "ɑ", "ɛ", "ʁ", "ʒ", "́", "̃", "̆", "α", "Ё", "А", "Б", "В", "Г", "Д", "Е", "Ж", "З", "И", "Й", "К", "Л", "М", "Н", "О", "П", "Р", "С", "Т", "У", "Ф", "Х", "Ц", "Ч", "Ш", "Щ", "Ы", "Ь", "Э", "Ю", "Я", "а", "б", "в", "г", "д", "е", "ж", "з", "и", "й", "к", "л", "м", "н", "о", "п", "р", "с", "т", "у", "ф", "х", "ц", "ч", "ш", "щ", "ъ", "ы", "ь", "э", "ю", "я", "ё", "і", "‍", "–", "—", "“", "”", "•", "…", "‰", "′", "⁰", "⁵", "⁸", "₂", "₃", "№", "∆", "−", "∠", "❤", "い", "う", "え", "か", "が", "き", "く", "け", "げ", "こ", "し", "じ", "す", "ず", "た", "だ", "っ", "つ", "て", "で", "と", "な", "に", "の", "は", "へ", "ま", "み", "む", "め", "も", "よ", "ら", "り", "る", "れ", "わ", "を", "ん", "世", "交", "今", "会", "何", "僕", "出", "包", "十", "吊", "囲", "図", "地", "変", "夜", "学", "差", "年", "広", "役", "待", "心", "思", "息", "描", "揺", "日", "明", "映", "来", "果", "校", "橋", "次", "欲", "気", "汚", "泣", "流", "消", "涙", "湛", "濁", "灯", "点", "無", "照", "由", "界", "目", "眠", "知", "空", "窺", "第", "終", "続", "線", "自", "褒", "見", "誰", "載", "込", "道", "還", "邪", "閉", "隠", "顔", "黙", "️", "﻿", "？", "🌞", "🎶", "🐵", "👨", "💻", "🔥", "🔫", "😊", "🙈", "🙉", "🙊", "🤖", "🦯", "🧶", "🫣", "ит", " л", " лю", " люб", " любит", "то", "ор", " с", " к", "ен", "Что", "ра", " а", "ша", " м", "од", "ле", "ис", "аша", " п", " в", "но", "ля", " Что", "гор", "ко", "ту", "ан", " и", "ом", " н", " ч", "ст", "ер", "леб", "ак", " о", "ел", "ри", "ны", " у", "ол", "ат", "ет", "ал", "ед", " гор", " город", "шо", " ко", " со", " К", "ро", " д", " р", " т", "ик", "ав", " как", "чту", "ни", "ера", "оро", "ени", "Даша", "ла", "ня", "фе", "Саша", "ай", "ыр", "ем", " х", " сыр", "Вера", "ома", "орошо", "Рома", " кака", "ена", "Хорошо", " какао", " учту", "Ира", "рил", "Юля", " кофе", "Бор", "Борис", "ита", "едя", "Федя", "Оля", " А", " сок", "еня", "Лена", "кс", " мо", "рилл", "ирилл", "Маша", "аня", "Ник", " з", "Никита", "Пав", "Павел", "Таня", "Егор", "кту", "ку", " рис", " Г", "ктуал", " хлеб", "лекс", "зы", "Женя", "ов", " чай", " на", "ги", "от", " сп", "ск", " не", " б", "ли", "лад", " му", "ный", "on", "ог", "ар", "ить", "ся", "орт", " музы", "ако", " музыку", " те", "ше", "  ", "оло", "th", " —", " спорт", "оду", "мат", " су", "рав", "ать", "го", " ша", "thon", "ython", " об", " кни", " моло", " книги", " молоко", " воду", " P", " суп", "ино", "хмат", " шахмат", " шахматы", " Даша", " по", " Вера", " Python", " за", " Саша", " ис", " ком", " Кирилл", "ств", " кино", "ьный", " Юля", " Рома", " Ира", "прав", "фи", "пер", " Борис", "ктуальный", " Лена", " Федя", " Никита", " Оля", "ам", "ани", " Маша", " Таня", " про", "перь", "ую", " ра", "ци", " Аня", " С", " Глеб", " Егор", " Павел", "тар", " теперь", " мой", " Алекс", "Актуальный", "жно", " комп", "Аня", "акой", " Женя", "огу", "оль", "Им", "Алекс", "Глеб", "ород", " э", "Кирилл", "ение", "ва", " от", "Имя", " актуал", " Какой", " Город", " актуален", " шо", "колад", " шоколад", " П", "им", "ных", "на", "ес", "фир", " ке", " кефир", "рт", "ка", " й", " йогу", " йогурт", "об", " компот", "ения", " мё", "ки", " мёд", "уч", " вы", "ры", " чем", " что", "ру", " для", " Т", "ей", "ть", " при", " ну", " я", "ож", "ти", "зан", " из", " то", " О", "ста", "ред", "ель", "пис", "во", "ши", " кото", "чи", " нужно", "ми", "ные", "сти", " М", " ре", "ут", "те", " стар", "ль", " г", " В", " Н", " старше", " млад", " младше", "че", "ление", "ют", "ольз", " бы", "сть", " или", "ров", " исправ", "Ис", "ход", "    ", "жи", " исправить", "ско", " во", "ания", "же", " запис", "ре", "зань", " это", "да", "правление", " запись", " раз", "вет", "польз", "Исправление", "Стар", "Старую", "Учту", "ется", "не", "нов", "ас", "ос", " использ", "ной", "гра", " которы", "мен", "рос", " пер", " так", "ного", " ф", "жет", "мер", " е", "ло", "из", " может", "ие", "аль", "их", " У", " Кто", " Р", "ара", "ий", "уй", "ин", " ст", " Мо", " -", "вер", "бот", " мог", "ист", "ите", " дан", " ин", " под", "чно", "in", "тов", " пом", "ает", "ции", "ами", "бы", " обуч", "лю", "ным", "ще", "ты", " ц", " Со", "яс", " дру", " пред", "де", "та", " до", " Ка", " но", " кон", "лов", "фа", " вс", "er", " обра", " Пер", " сво", " (", "ме", " Сочи", " рас", "он", " Уфа", "ание", "зд", " Том", "мь", " Томск", "or", "ула", " жи", " На", "ческ", "ой", " Пермь", " Тула", " ответ", " которые", "ун", " Казань", "грам", " Сам", "аться", "ении", "уд", "мол", "ъяс", " Самара", "енск", "ень", " Смол", " Смоленск", " данных", "ек", "стро", "алуй", "алуйста", "лед", "сков", "мск", "си", " Псков", " Омск", " Э", " язы", "жд", " использов", "ёт", "оч", "ма", " од", " оп", "му", " Моск", "итель", "ное", " Москва", "ве", "ожалуйста", " Ря", " Рязань", "Пожалуйста", "ые", " a", " ней", "ство", "ая", " чтобы", "при", "унк", "тер", " ос", " могут", "ков", "шь", "зу", " програм", " пол", "зыва", "люч", " сооб", "ъясни", "Об", "сли", " неб", "ность", "at", " ва", " воз", "став", "en", "рем", " Е", " Это", "сто", "за", "ная", " ответа", "оле", "зов", "ска", " сообщ", " неболь", "ra", "ок", "el", "ят", "ключ", "Объясни", "аком", "стато", "ция", " сер", "пол", " быть", "шиб", " ка", "ства", " \"", " св", "ним", " можно", " ошиб", "росет", "ых", " други", "зн", "истем", "re", "ности", "еб", "ез", " зн", "статочно", " все", "вод", " сл", "бор", " систем", "пример", " ме", " A", "ены", "ну", "ид", "прос", " мод", " ука", " p", "лько", " Д", "едо", "ляет", "ствен", " жив", " пр", "строй", " ли", "ерж", "ную", "том", " обучения", " боль", " ус", "ими", "олее", " 1", "имо", " Б", "ными", " соб", "ений", "ются", " врем", "ке", " функ", "ующ", " буд", " меня", " след", " ты", "ro", "едостаточно", "ели", "пу", " нейросет", " общ", " пос", "Как", "ющ", "На", "нач", " его", " ку", "ует", " Если", " работ", "ики", "лич", "мы", "пи", " пов", "вля", "реб", " пл", " зада", "мо", "ыва", " созд", " также", " Недостаточно", "есс", "цию", " основ", "чес", " интер", " каком", "кой", "особ", "ран", "ходит", " код", " И", " городе", "кст", "тор", "ца", " сервер", " указан", "бо", "иться", " включ", " живёт", "le", "ном", " сообщении", "овор", "це", " пример", "обра", " был", " име", " ток", "ge", "по", " b", " чис", " явля", "ил", "ате", "st", " тем", "айте", " который", "ув", "nd", "атель", " получ", " свя", "гда", "ери", "кры", " более", " их", " вам", " дел", " сто", " способ", "рон", " 2", "уют", "олж", "торы", " З", "ах", "ейств", "зывает", " «", "енных", "нич", "тив", " произ", "вать", " =", "ия", " небольш", "кую", "редел", "фор", "ег", "оли", " же", " ш", " Как", " пре", " пока", " сам", "зи", "ять", "есь", "су", " зав", "ебя", "ого", "ch", "ализ", "дел", "ществ", "ый", " ж", " слов", "ления", " люд", "ент", "зуль", " *", " резуль", " F", " мы", "гранич", "кт", "ком", "про", " Например", " мно", " ан", " .", "it", " задач", "ается", "гу", "ика", "ращ", "ровать", " огранич", " перем", " сет", " ча", " могу", "если", " уч", " услов", "увств", " перед", "мет", " есть", "елов", " программ", "При", "зови", " f", " использовать", " ми", " результ", "ём", " если", " фи", "id", "ром", " неско", " челов", " он", " проек", "as", " зов", " зовут", "анд", " кажд", " ошибку", " пот", " различ", "очь", "пе", " конте", " пере", " тако", "али", "ете", " модель", "ac", "ic", "которы", " |", " ма", " следующ", " эле", "ешь", "ему", "работ", " является", "алень", "икл", "рать", " изуч", " определ", "лу", "ьше", " мне", " помочь", " прод", " того", "вой", "станов", "цион", "лож", "чни", "      ", " проц", "лей", " ве", "nge", "атем", " без", " вес", " выпол", "erc", "скажи", "ву", " in", " нов", " вер", " действ", " завис", " пор", "га", "лас", "ощ", "рат", "ercel", "im", "ере", "ись", " знания", "лен", "рования", "фей", " Назови", " актуальный", " гра", " необ", "Ран", "Раньше", "ви", "туп", " выб", " других", "ur", "вращ", " устрой", "ub", " они", " подд", " чувств", " числа", "al", "можно", "нако", " время", " день", " результат", "овать", "одерж", "ций", "ями", " необход", " такое", " челове", " язык", "ально", "кого", "ус", " нач", "аз", "итор", "ник", "чество", " малень", " мас", " процесс", "пиши", " Я", " несколько", " обработ", "PI", "иб", "нять", "рая", " помощ", "пл", " сдел", "вед", "вая", "пас", "уется", "форма", " s", " возвращ", "range", " дос", " коли", " эти", "ar", "ческие", " обла", "енно", "ением", "жения", "ым", " нуж", " прав", " себя", "us", " По", " им", " план", " таких", "00", "ают", "вести", "йте", "пы", "рет", "яд", " вопрос", "днако", " будет", " поз", "стоя", " она", " помог", "енной", "со", "сы", "уз", " range", " ви", " веса", " маленькую", " такие", " хот", "ала", "иль", " S", " знач", " которая", " предска", " провер", " спис", " стра", " условий", "аний", "ьте", " При", " вас", " ди", " реш", " слож", "de", "Привет", "ающ", "готов", "ии", "менты", "ческих", "ью", " переменных", " тех", "me", "ации", "бат", " имеет", " нет", " находит", " свои", "Для", "которые", "сте", " Об", " возвращает", " коро", " сред", " текст", "ится", "ктив", "нить", "рилож", " th", " v", " разработ", " следующий", "са", " 4", " ор", " причи", "тому", "ункция", "шин", " доб", " можете", " общаться", " этом", "an", "ению", " M", " когда", " команд", " межд", " небольшим", " пог", " сбор", " содерж", "ent", "ана", "ив", " вним", " возможно", " используют", " сделать", " случ", "аниз", "кус", "циаль", " которо", " наш", " обработки", " чер", "до", "ода", "се", " t", " ав", " настрой", " программи", " созн", "нее", " L", " информа", " уд", "ot", "По", "стру", "ьют", " вид", " прилож", " треб", " токен", "ion", "зв", "рауз", "стве", "ях", " /", " 3", " да", " де", " другие", " компьют", " мат", " находится", " откры", " па", " поддерж", " предсказывает", " только", " функции", "мента", "ностью", "оне", "сп", "стей", " контекст", " нейрон", " нейросетей", " переда", " продолж", " свой", " фак", " этого", " языка", "ndro", "ndroid", "pi", "каз", "чит", " доступ", " исто", " исход", " между", " оч", " объ", "рован", " R", " Не", " ваше", " зву", " набор", " ограничены", "аю", "рии", " c", " for", " Мои", " зд", " позво", "Могу", "шое", " предлож", "зни", "уйте", "хож", " V", " ду", " изобра", " луч", " польз", " производ", " работает", " ск", " установ", " цикл", "ut", "имости", "чис", "шить", " G", " i", "        ", " Так", " бу", " выбрать", " имен", " много", " проект", " существ", " фай", " фор", "дра", "иру", "сов", " Однако", " затем", " кор", " отно", "зывают", "лез", "ляр", "обод", "так", " `", " o", " Android", " бло", " жизни", " настройки", " образ", "int", "батыва", "ех", "жение", "лы", "ффе", " Она", " виде", " множе", " помощью", " преобра", " син", " сло", " серверу", " эко", "вле", "енная", "поз", "этому", " api", " Ин", " жел", " системы", "Если", "нер", "ря", "учение", " K", " vercel", " вывод", " передаёт", "его", "знач", "осле", "позитор", "сии", " Л", " Для", " Можно", " где", " дол", " иде", " ни", " проб", " сообщения", " тек", " чём", "ord", "ании", "гии", "ев", "елю", "ледов", "мот", "мень", "полн", " re", " Вы", " времени", " иг", " обес", " обеспе", " одно", " пу", " пользов", " просто", " элект", "лав", " авто", " больше", " ваш", " долж", " инстру", " обрат", " поговор", " прим", " теб", " умень", " хо", " эта", "et", "js", "Про", "авать", "кие", "комен", "ница", "нят", "щё", " ар", " вычис", " конце", " объяс", " потреб", " репозитор", " шут", "ош", "руд", " После", " Этот", " выполня", " задачами", " кур", " людей", " многи", " текста", "вест", "гн", "еди", "олн", "ться", "ур", "шая", " w", " вз", " вред", " вход", " зна", " интерфей", " мет", " него", " отправ", " программирования", " сай", " три", "ft", "urn", "луч", "опас", "час", "яет", " ги", " python", " интерес", " пак", " пит", " сей", " свобод", " том", "la", "Ней", "амять", "еленной", "оров", "цы", " 0", " друг", " кода", " конт", " най", " например", " обнов", " пра", " поряд", " сейчас", " уг", "turn", "ались", "горит", "есто", "ждения", "нимает", "ский", "цен", " C", " было", " корот", " модели", " них", " очень", " спе", " цел", " час", " эффе", "lo", "анизм", "ди", "лгорит", "ческий", " Могу", " вли", " гру", " мин", " области", " поговорим", " расскажи", " сборки", " систему", "лятор", "лять", "ников", "оят", "ственного", "тим", "тод", " Те", " возд", " замет", " запрос", " количество", " небольшими", " пробле", " сч", " сети", " состав", "ing", "rint", "кое", "тесь", "ших", " D", " Интер", " Он", " кар", " каждой", " машин", " нейросетями", " обрабатыва", " создания", " темы", "ri", "ubl", "лаг", "ние", "пот", " ши", " автомат", " небольшое", " необходимо", " пар", " полез", " повтор", " представ", " репозиторий", " см", " через", "sh", "вы", "изации", "иму", "оде", "па", "ён", " измен", " поч", " привести", " произош", "ass", "pt", "ux", "ерату", "сь", "фика", "шил", " +", " N", " m", " добав", " использу", " клас", " образов", " отд", " ошибки", " си", " случа", " человека", "аб", "грамм", "иту", "кти", "коменд", "ожет", "олож", "порт", "ском", "чешь", " T", " the", " Обучение", " зад", " компон", " компьютер", " множество", " обеспеч", " образом", " обучении", " одну", " понят", " функций", " хочешь", " энер", " языке", "chat", "Меня", "вает", "лин", "очему", "проб", "следов", "ского", "ческого", " U", " X", " Они", " бес", " безопас", " говор", " действие", " ещё", " знаком", " метод", " особ", " рус", " свою", "ken", "анием", "гов", "ина", "ике", "ительно", "остав", "прост", "хоже", "читыва", "яти", " h", " ро", " Re", " выполняется", " дело", " зависимости", " напиши", " настро", " общения", " примеры", " сов", " уменьшить", " этих", "API", "act", "dd", "def", "na", "ree", "ающих", "ено", "ительные", "росеть", "щества", "ям", " O", " блок", " вой", " дополн", " люди", " матери", " нав", " нас", " отлич", " позволяет", " преобразу", " произошло", " разв", " специ", "assw", "assword", "inux", "py", "еж", "кий", "кстом", "раузер", "юсь", " I", " Ф", " •", " API", " Теперь", " имеют", " каль", " нашем", " нуля", " предложить", " примером", " скры", " списки", " тор", " этой", "ak", "ort", "Пом", "говор", "енные", "ковая", "ческой", " W", " Мех", " Прав", " будут", " внимания", " ее", " извест", " искус", " кред", " кальку", " лучше", " меняет", " обрабатывает", " основе", " пау", " пакет", " подход", " преобразует", " распрост", " токены", " циклы", "ation", "ublic", "Вот", "Нейросеть", "Так", "Тебя", "Цикл", "ерах", "мать", "ологи", "пуляр", " Его", " Зем", " Учитыва", " высо", " зак", " лок", " моз", " напис", " найти", " некоторые", " орг", " отдель", " принимает", " решил", " сох", " тебя", " улуч", " цик", " целом", "ev", "вар", "ибли", "иблиот", "ируй", "лет", "огда", "очу", "просто", "роб", "стан", "тра", "чной", "чь", "яв", " print", " return", " Браузер", " Механизм", " включается", " данные", " её", " исследов", " калькулятор", " которое", " объяснить", " пи", " повторяет", " развит", " своей", " синтак", " случае", " соот", " тер", " чате", " часть", "json", "Импорт", "Начни", "Программ", "Это", "ало", "как", "она", "роме", "силь", "шать", " Vercel", " public", " Вот", " Интерфей", " Интерфейс", " Правая", " алгорит", " анализ", " бел", " библиот", " включая", " вселенной", " выводит", " граница", " зато", " заметки", " знакомые", " изучи", " интерфейсу", " используется", " используй", " контекстом", " локально", " над", " непросто", " обученная", " отправляет", " паузу", " плат", " посиль", " поэтому", " показывают", " послед", " посильное", " программу", " продолжим", " ру", " различных", " связан", " связывает", " собери", " стать", " шутить", "name", "Импортируй", "Похоже", "Программист", "альные", "ней", "ое", "торов", "тые", "фер", "функция", " def", " n", " {", " была", " вероят", " вос", " вопросы", " друго", " здоров", " коммента", " минут", " назв", " начать", " ог", " популяр", " разговор", " свет", " свободно", " соответ", " языковая", "bo", "исти", "ких", "нут", "ора", "рес", "сис", "ские", "сты", "чества", " React", " аргу", " были", " важно", " науч", " оцен", " порядок", " после", " рабо", " различные", " сознание", " темп", " техно", " уров", "il", "iv", "pe", "аются", "анию", "ду", "нг", "рас", "ской", "щи", "щее", "ятель", " Мод", " автоматизации", " большо", " дви", " зависит", " информацию", " проходит", " синтаксис", " социаль", " труд", " теор", " температу", " удал", " устройства", " хотите", "ация", "аны", "ебе", "ержи", "жешь", "иболее", "ках", "мос", "оды", " 5", " B", " 10", " возду", " ден", " дет", " друж", " зам", " использовались", " использоваться", " небольшая", " нужны", " опы", " приготов", " раст", " себе", " сем", " серверов", " скрытые", " соответств", " цвет", " чего", "Python", "is", "un", "Сер", "вые", "ками", "нет", "оз", "оре", "ье", " Начни", " аргументы", " дружелю", " дружелюб", " именем", " использования", " команду", " комментарии", " можешь", " необходим", " обучающих", " объек", " пла", " понятным", " предостав", " причинять", " создать", " циклов", " этапы", "ate", "ers", "Функция", "ант", "асскажи", "жда", "кру", "ляют", "пом", "чем", " Kra", " Kraken", " add", " Рос", " Также", " Учитываю", " всё", " даже", " дости", " зем", " задачи", " имя", " короткие", " набором", " навы", " ошибаться", " помогаю", " рассу", " рассуждения", " репл", " реплики", " синтаксисом", " твой", " точ", " части", " широ", " являются", "ex", "og", "Серые", "гнит", "раня", "ья", "яют", " мен", " опис", " один", " пони", " поддержать", " сложно", " собак", " собой", " эконом", "ok", "Вы", "ад", "ализи", "ента", "ити", "кажи", "нем", "ните", "того", "цу", "ческую", "чески", "шение", " to", " ат", " глу", " деньги", " достаточно", " есте", " кол", " новых", " основы", " пользовате", " расп", " ситу", " состоя", " сторо", " ут", "do", "ername", "ело", "точ", "ущ", "цеп", "шим", " актив", " года", " денег", " кредит", " лег", " лож", " распростран", " рекоменд", " сни", " сознания", " управ", "cri", "cript", "pen", "Со", "ап", "бед", "гру", "зывать", "или", "итесь", "мыс", "ось", "сих", "сив", "стях", "торо", "ёр", " Ис", " библиоте", " вычисляет", " жизн", " изображ", " используются", " лет", " моё", " наиболее", " отс", " попроб", " получить", " примерах", " проис", " работы", " ядра", "ce", "co", "est", "аты", "ательно", "би", "ещ", "нес", "ому", "той", "шения", " Солн", " вза", " внимание", " воздух", " всего", " году", " другой", " ква", " куль", " мире", " некоторы", " отдельных", " относ", " псих", " проду", " практи", " собствен", " тв", " установить", " хочу", "ice", "ity", "port", "Не", "альной", "альных", "еля", "ику", "лем", "мож", "огра", "ратить", "уб", "шайте", "ящ", " ед", " ци", " Бог", " Качество", " Модель", " Но", " анг", " анти", " вашей", " ген", " гол", " дружелюбно", " изб", " какие", " обновляет", " потер", " приложения", " проверяют", " стол", " счита", " такой", " ув", " функцию", " электрон", "10", "Пере", "Почему", "ари", "ати", "ветов", "гно", "елей", "енный", "инг", "мин", "ному", "реть", "уж", "честве", "шу", "ывать", " x", "          ", " Раз", " вари", " всех", " другими", " зр", " которых", " культу", " машинного", " называ", " око", " обы", " оптим", " память", " пло", " свер", " сол", " следует", " список", " техноло", " физи", " часто", "all", "put", "ul", "енным", "еть", "ип", "личи", "ожешь", "потреб", "рование", "ских", "тое", "ток", "уществ", "чных", "яз", "ёл", " За", " взаим", " должен", " инт", " кос", " мик", " многих", " ново", " обучение", " опера", " пе", " пож", " поис", " поним", " постоя", " поможет", " постоян", " предп", " работать", " разных", " рецеп", " став", " тра", " тре", " теле", " уже", " узн", " файл", " цент", " эффектив", "con", "ec", "вол", "енты", "жим", "куп", "льку", "нения", "нос", "пли", "пп", "плат", "скольку", " E", " l", " Ч", " 19", " бли", " ид", " котором", " меди", " мозг", " наб", " нап", " обратиться", " пы", " решения", " самых", " своих", " сеть", " содержит", " условия", "ig", "ue", "ype", "алог", "бу", "вайте", "ваем", "влек", "еты", "зано", "инов", "ительных", "кам", "казать", "лик", "лий", "нуть", "ресс", "тора", "фес", "щего", "ыми", " Linux", " Земли", " ауд", " брауз", " важ", " глубо", " два", " делать", " еще", " естественного", " живот", " запу", " изображения", " какой", " капу", " ле", " мощ", " нед", " наше", " отключ", " открыты", " перв", " подроб", " полностью", " сайт", " связ", " требует", " хара", "SD", "av", "mo", "От", "аем", "ети", "мент", "мотреть", "рип", "шки", " J", " Х", " рав", " От", " России", " вне", " используя", " коне", " количества", " нем", " направ", " нару", " означ", " особенно", " повер", " профес", " реализ", " состо", " тво", " устройство", " этот", " яй", "if", "Напиши", "гура", "деюсь", "есур", "жу", "ибо", "имость", "ительность", "крет", "люд", "рен", "стре", "цией", "чер", "ществен", "ющие", "ян", " of", " атом", " большой", " возможности", " выбор", " выход", " дав", " дума", " использует", " клав", " каждый", " клави", " место", " медици", " микро", " многие", " нес", " нейросети", " опас", " операцион", " поддержи", " ресур", " расход", " смыс", " сти", " сохраня", " стро", " стру", " структу", " уча", " цель", "Script", "_t", "ash", "es", "ele", "our", "ram", "Созд", "аря", "быти", "ительного", "ментов", "нение", "ния", "ование", "позн", "раж", "росить", "стой", "тах", "флик", "чение", "ческим", " 7", " 20", " and", " Ан", " безопасности", " браузере", " вар", " веб", " дов", " знаний", " знаю", " изображений", " именно", " конкрет", " кури", " мар", " нейросеть", " ощ", " одной", " плох", " повы", " преиму", " работу", " распозн", " реак", " сил", " система", " событи", " существует", " устройств", " филь", "ату", "альный", "аличи", "атив", "ваться", "груз", "еро", "ильно", "ину", "ким", "клад", "лай", "удь", "чик", "ьми", " готов", " FF", " Когда", " алгоритм", " атмос", " больш", " вкус", " вашего", " видео", " выс", " жизнь", " зако", " заня", " заб", " исследования", " кра", " кру", " мед", " моду", " некоторых", " обычно", " пожалуйста", " примен", " рек", " рекомендуется", " сах", " справ", " стороны", " тести", " употреб", " узнать", " факторов", " хоро", " харак", " характер", " экс", "For", "ag", "and", "for", "iz", "rac", "uth", "азов", "ался", "ального", "ват", "дро", "ды", "лагод", "нии", "ний", "них", "ования", "под", "сион", "фигура", "чики", " '", " 200", " Затем", " Память", " ас", " вме", " возмож", " голо", " глубокого", " доро", " звуки", " кто", " класси", " материал", " мира", " нау", " несколь", " облад", " одним", " появ", " почему", " прош", " сков", " совет", " солне", " социальных", " стиму", " страна", " удалить", " цен", " элементы", "ML", "stall", "Также", "вания", "вается", "водить", "ентов", "зда", "йтесь", "кну", "мун", "ники", "над", "номи", "онечно", "ровер", "спек", "ствие", "ством", "ум", "чить", "чное", " \\", " Ц", " Git", " Вс", " Ма", " Ты", " воды", " влия", " возник", " дис", " должно", " игра", " истори", " конфлик", " мяс", " микроф", " начи", " нужный", " остав", " опред", " ощущ", " предпоч", " продук", " простой", " роль", " распознав", " ско", " слова", " сложных", " создавать", " стак", " увели", " услу", " успе", " чая", " чет", " чит", " эк", "UR", "age", "ake", "gram", "rice", "up", "username", "Но", "Однако", "ию", "изм", "ительности", "лайн", "ласно", "него", "ностей", "осто", "сия", "ская", "чным", "ческое", "ческая", "ческими", "ьи", " [", " –", "   ", " Ar", " Некоторые", " англий", " выг", " ге", " деятель", " зел", " забы", " имет", " иметь", " информации", " используем", " кофеина", " мил", " мест", " наличи", " наход", " напря", " нужен", " около", " определить", " отключить", " поверх", " понима", " посмотреть", " разные", " развития", " режим", " результате", " сег", " сли", " сх", " соврем", " стоит", " учит", " фин", " хол", " хорошо", " цвета", " яйца", "50", "ab", "ay", "ed", "ment", "Да", "Кроме", "Расскажи", "будь", "ведом", "ежать", "енное", "лам", "окар", "ота", "прияти", "роваться", "тива", "ча", "ющих", "яг", " _", " ту", " Jav", " Java", " wh", " Под", " Поэтому", " Созд", " быстро", " видеокар", " включает", " возможность", " вызывать", " долго", " желе", " значения", " избежать", " интернет", " исходный", " качестве", " конфигура", " которой", " людьми", " метри", " мир", " офи", " опыта", " пара", " пис", " полож", " передаётся", " покры", " покуп", " понять", " повли", " прогно", " прост", " ред", " размер", " расс", " смер", " создание", " сохраняются", " таб", " тран", " топли", " тормо", " убед", " уме", " финан", " чув", " человек", " эмо", "BSD", "ai", "elegram", "get", "mod", "reeBSD", "se", "Какие", "Перепис", "Переписка", "ау", "бло", "вое", "гие", "графи", "елле", "енд", "енти", "ерв", "жем", "зать", "изнес", "истри", "ительное", "лении", "лой", "нам", "нибудь", "нишь", "оди", "осо", "род", "стат", "ствия", "чный", "щит", "щество", "ётся", " 8", " 9", " install", " Доб", " атомов", " бан", " бог", " вместе", " всегда", " гал", " делает", " достав", " зара", " значение", " идеи", " изучения", " использование", " лек", " любой", " мень", " масла", " мини", " милли", " мысли", " недо", " низ", " новые", " окру", " оно", " отсут", " прави", " прос", " профессион", " рассе", " реги", " сц", " скоро", " текс", " уда", " уст", " утвер", " фра", " чисел", " этим", "AP", "DE"], "merges": [["и", "т"], [" ", "л"], [" л", "ю"], [" лю", "б"], [" люб", "ит"], ["т", "о"], ["о", "р"], [" ", "с"], [" ", "к"], ["е", "н"], ["Ч", "то"], ["р", "а"], [" ", "а"], ["ш", "а"], [" ", "м"], ["о", "д"], ["л", "е"], ["и", "с"], ["а", "ша"], [" ", "п"], [" ", "в"], ["н", "о"], ["л", "я"], [" ", "Что"], ["г", "ор"], ["к", "о"], ["т", "у"], ["а", "н"], [" ", "и"], ["о", "м"], [" ", "н"], [" ", "ч"], ["с", "т"], ["е", "р"], ["ле", "б"], ["а", "к"], [" ", "о"], ["е", "л"], ["р", "и"], ["н", "ы"], [" ", "у"], ["о", "л"], ["а", "т"], ["е", "т"], ["а", "л"], ["е", "д"], [" ", "гор"], [" гор", "од"], ["ш", "о"], [" к", "о"], [" с", "о"], [" ", "К"], ["р", "о"], [" ", "д"], [" ", "р"], [" ", "т"], ["и", "к"], ["а", "в"], [" к", "ак"], ["ч", "ту"], ["н", "и"], ["е", "ра"], ["ор", "о"], ["ен", "и"], ["Д", "аша"], ["л", "а"], ["н", "я"], ["ф", "е"], ["С", "аша"], ["а", "й"], ["ы", "р"], ["е", "м"], [" ", "х"], [" с", "ыр"], ["В", "ера"], ["ом", "а"], ["оро", "шо"], ["Р", "ома"], [" как", "а"], ["ен", "а"], ["Х", "орошо"], [" кака", "о"], [" у", "чту"], ["И", "ра"], ["ри", "л"], ["Ю", "ля"], [" ко", "фе"], ["Б", "ор"], ["Бор", "ис"], ["ит", "а"], ["ед", "я"], ["Ф", "едя"], ["О", "ля"], [" ", "А"], [" со", "к"], ["ен", "я"], ["Л", "ена"], ["к", "с"], [" м", "о"], ["рил", "л"], ["и", "рилл"], ["М", "аша"], ["ан", "я"], ["Н", "ик"], [" ", "з"], ["Ник", "ита"], ["П", "ав"], ["Пав", "ел"], ["Т", "аня"], ["Е", "гор"], ["к", "ту"], ["к", "у"], [" р", "ис"], [" ", "Г"], ["кту", "ал"], [" х", "леб"], ["ле", "кс"], ["з", "ы"], ["Ж", "еня"], ["о", "в"], [" ч", "ай"], [" н", "а"], ["г", "и"], ["о", "т"], [" с", "п"], ["с", "к"], [" н", "е"], [" ", "б"], ["л", "и"], ["ла", "д"], [" м", "у"], ["ны", "й"], ["o", "n"], ["о", "г"], ["а", "р"], ["ит", "ь"], ["с", "я"], ["ор", "т"], [" му", "зы"], ["а", "ко"], [" музы", "ку"], [" т", "е"], ["ш", "е"], [" ", " "], ["ол", "о"], ["t", "h"], [" ", "—"], [" сп", "орт"], ["од", "у"], ["м", "ат"], [" с", "у"], ["ра", "в"], ["ат", "ь"], ["г", "о"], [" ", "ша"], ["th", "on"], ["y", "thon"], [" о", "б"], [" к", "ни"], [" м", "оло"], [" кни", "ги"], [" моло", "ко"], [" в", "оду"], [" ", "P"], [" су", "п"], ["и", "но"], ["х", "мат"], [" ша", "хмат"], [" шахмат", "ы"], [" ", "Даша"], [" п", "о"], [" ", "Вера"], [" P", "ython"], [" з", "а"], [" ", "Саша"], [" ", "ис"], [" к", "ом"], [" К", "ирилл"], ["ст", "в"], [" к", "ино"], ["ь", "ный"], [" ", "Юля"], [" ", "Рома"], [" ", "Ира"], ["п", "рав"], ["ф", "и"], ["п", "ер"], [" ", "Борис"], ["ктуал", "ьный"], [" ", "Лена"], [" ", "Федя"], [" ", "Никита"], [" ", "Оля"], ["а", "м"], ["ан", "и"], [" ", "Маша"], [" ", "Таня"], [" п", "ро"], ["пер", "ь"], ["у", "ю"], [" ", "ра"], ["ц", "и"], [" А", "ня"], [" ", "С"], [" Г", "леб"], [" ", "Егор"], [" ", "Павел"], ["т", "ар"], [" те", "перь"], [" мо", "й"], [" А", "лекс"], ["А", "ктуальный"], ["ж", "но"], [" ком", "п"], ["А", "ня"], ["ако", "й"], [" ", "Женя"], ["ог", "у"], ["ол", "ь"], ["И", "м"], ["А", "лекс"], ["Г", "леб"], ["ор", "од"], [" ", "э"], ["К", "ирилл"], ["ени", "е"], ["в", "а"], [" о", "т"], ["Им", "я"], [" а", "ктуал"], [" К", "акой"], [" Г", "ород"], [" актуал", "ен"], [" ", "шо"], ["ко", "лад"], [" шо", "колад"], [" ", "П"], ["и", "м"], ["ны", "х"], ["н", "а"], ["е", "с"], ["фи", "р"], [" к", "е"], [" ке", "фир"], ["р", "т"], ["к", "а"], [" ", "й"], [" й", "огу"], [" йогу", "рт"], ["о", "б"], [" комп", "от"], ["ени", "я"], [" м", "ё"], ["к", "и"], [" мё", "д"], ["у", "ч"], [" в", "ы"], ["р", "ы"], [" ч", "ем"], [" ч", "то"], ["р", "у"], [" д", "ля"], [" ", "Т"], ["е", "й"], ["т", "ь"], [" п", "ри"], [" н", "у"], [" ", "я"], ["о", "ж"], ["т", "и"], ["з", "ан"], [" и", "з"], [" ", "то"], [" ", "О"], ["ст", "а"], ["р", "ед"], ["ел", "ь"], ["п", "ис"], ["в", "о"], ["ш", "и"], [" ко", "то"], ["ч", "и"], [" ну", "жно"], ["м", "и"], ["ны", "е"], ["ст", "и"], [" ", "М"], [" р", "е"], ["у", "т"], ["т", "е"], [" с", "тар"], ["л", "ь"], [" ", "г"], [" ", "В"], [" ", "Н"], [" стар", "ше"], [" м", "лад"], [" млад", "ше"], ["ч", "е"], ["л", "ение"], ["ю", "т"], ["оль", "з"], [" б", "ы"], ["ст", "ь"], [" и", "ли"], ["ро", "в"], [" ис", "прав"], ["И", "с"], ["х", "од"], ["  ", "  "], ["ж", "и"], [" исправ", "ить"], ["с", "ко"], [" в", "о"], ["ани", "я"], ["ж", "е"], [" за", "пис"], ["р", "е"], ["зан", "ь"], [" э", "то"], ["д", "а"], ["прав", "ление"], [" запис", "ь"], [" ра", "з"], ["в", "ет"], ["п", "ольз"], ["Ис", "правление"], ["С", "тар"], ["Стар", "ую"], ["У", "чту"], ["ет", "ся"], ["н", "е"], ["но", "в"], ["а", "с"], ["о", "с"], [" ис", "польз"], ["но", "й"], ["г", "ра"], [" кото", "ры"], ["м", "ен"], ["ро", "с"], [" п", "ер"], [" т", "ак"], ["но", "го"], [" ", "ф"], ["ж", "ет"], ["м", "ер"], [" ", "е"], ["л", "о"], ["и", "з"], [" мо", "жет"], ["и", "е"], ["ал", "ь"], ["и", "х"], [" ", "У"], [" К", "то"], [" ", "Р"], ["а", "ра"], ["и", "й"], ["у", "й"], ["и", "н"], [" с", "т"], [" М", "о"], [" ", "-"], ["в", "ер"], ["б", "от"], [" мо", "г"], ["ис", "т"], ["ит", "е"], [" д", "ан"], [" и", "н"], [" п", "од"], ["ч", "но"], ["i", "n"], ["то", "в"], [" п", "ом"], ["а", "ет"], ["ци", "и"], ["ам", "и"], ["б", "ы"], [" об", "уч"], ["л", "ю"], ["ны", "м"], ["щ", "е"], ["т", "ы"], [" ", "ц"], [" С", "о"], ["я", "с"], [" д", "ру"], [" п", "ред"], ["д", "е"], ["т", "а"], [" д", "о"], [" К", "а"], [" ", "но"], [" ко", "н"], ["л", "ов"], ["ф", "а"], [" в", "с"], ["e", "r"], [" об", "ра"], [" П", "ер"], [" с", "во"], [" ", "("], ["м", "е"], [" Со", "чи"], [" ра", "с"], ["о", "н"], [" У", "фа"], ["ани", "е"], ["з", "д"], [" Т", "ом"], ["м", "ь"], [" Том", "ск"], ["o", "r"], ["у", "ла"], [" ", "жи"], [" Н", "а"], ["че", "ск"], ["о", "й"], [" Пер", "мь"], [" Т", "ула"], [" от", "вет"], [" которы", "е"], ["у", "н"], [" Ка", "зань"], ["гра", "м"], [" С", "ам"], ["ать", "ся"], ["ени", "и"], ["у", "д"], ["м", "ол"], ["ъ", "яс"], [" Сам", "ара"], ["ен", "ск"], ["ен", "ь"], [" С", "мол"], [" Смол", "енск"], [" дан", "ных"], ["е", "к"], ["ст", "ро"], ["ал", "уй"], ["алуй", "ста"], ["ле", "д"], ["ско", "в"], ["м", "ск"], ["с", "и"], [" П", "сков"], [" О", "мск"], [" ", "Э"], [" я", "зы"], ["ж", "д"], [" использ", "ов"], ["ё", "т"], ["о", "ч"], ["м", "а"], [" ", "од"], [" о", "п"], ["м", "у"], [" Мо", "ск"], ["ит", "ель"], ["но", "е"], [" Моск", "ва"], ["в", "е"], ["ож", "алуйста"], [" Р", "я"], [" Ря", "зань"], ["П", "ожалуйста"], ["ы", "е"], [" ", "a"], [" не", "й"], ["ств", "о"], ["а", "я"], [" что", "бы"], ["п", "ри"], ["ун", "к"], ["т", "ер"], [" о", "с"], [" мог", "ут"], ["ко", "в"], ["ш", "ь"], ["з", "у"], [" про", "грам"], [" п", "ол"], ["зы", "ва"], ["лю", "ч"], [" со", "об"], ["ъяс", "ни"], ["О", "б"], ["с", "ли"], [" не", "б"], ["но", "сть"], ["a", "t"], [" в", "а"], [" во", "з"], ["ст", "ав"], ["e", "n"], ["р", "ем"], [" ", "Е"], [" Э", "то"], ["с", "то"], ["з", "а"], ["на", "я"], [" ответ", "а"], ["о", "ле"], ["з", "ов"], ["ск", "а"], [" сооб", "щ"], [" неб", "оль"], ["r", "a"], ["о", "к"], ["e", "l"], ["я", "т"], ["к", "люч"], ["Об", "ъясни"], ["ако", "м"], ["ста", "то"], ["ци", "я"], [" с", "ер"], ["п", "ол"], [" бы", "ть"], ["ши", "б"], [" к", "а"], ["ств", "а"], [" ", "\""], [" с", "в"], ["ни", "м"], [" мо", "жно"], [" о", "шиб"], ["рос", "ет"], ["ы", "х"], [" дру", "ги"], ["з", "н"], ["ист", "ем"], ["r", "e"], ["но", "сти"], ["е", "б"], ["е", "з"], [" з", "н"], ["стато", "чно"], [" вс", "е"], ["в", "од"], [" с", "л"], ["б", "ор"], [" с", "истем"], ["при", "мер"], [" м", "е"], [" ", "A"], ["ен", "ы"], ["н", "у"], ["и", "д"], ["п", "рос"], [" м", "од"], [" у", "ка"], [" ", "p"], ["ль", "ко"], [" ", "Д"], ["ед", "о"], ["ля", "ет"], ["ств", "ен"], [" жи", "в"], [" п", "р"], ["стро", "й"], [" л", "и"], ["ер", "ж"], ["н", "ую"], ["то", "м"], [" обуч", "ения"], [" б", "оль"], [" у", "с"], ["им", "и"], ["оле", "е"], [" ", "1"], ["им", "о"], [" ", "Б"], ["ны", "ми"], [" со", "б"], ["ени", "й"], ["ют", "ся"], [" в", "рем"], ["к", "е"], [" ф", "унк"], ["ую", "щ"], [" б", "уд"], [" м", "еня"], [" с", "лед"], [" т", "ы"], ["r", "o"], ["едо", "статочно"], ["ел", "и"], ["п", "у"], [" ней", "росет"], [" об", "щ"], [" по", "с"], ["К", "ак"], ["ю", "щ"], ["Н", "а"], ["на", "ч"], [" е", "го"], [" к", "у"], ["у", "ет"], [" Е", "сли"], [" ра", "бот"], ["ик", "и"], ["ли", "ч"], ["м", "ы"], ["п", "и"], [" п", "ов"], ["в", "ля"], ["ре", "б"], [" п", "л"], [" за", "да"], ["м", "о"], ["ы", "ва"], [" со", "зд"], [" так", "же"], [" Н", "едостаточно"], ["ес", "с"], ["ци", "ю"], [" ос", "нов"], ["ч", "ес"], [" ин", "тер"], [" к", "аком"], ["ко", "й"], ["ос", "об"], ["ра", "н"], ["ход", "ит"], [" к", "од"], [" ", "И"], [" город", "е"], ["к", "ст"], ["то", "р"], ["ц", "а"], [" сер", "вер"], [" ука", "зан"], ["б", "о"], ["ить", "ся"], [" в", "ключ"], [" жив", "ёт"], ["l", "e"], ["но", "м"], [" сообщ", "ении"], ["ов", "ор"], ["ц", "е"], [" при", "мер"], ["об", "ра"], [" бы", "л"], [" и", "ме"], [" то", "к"], ["g", "e"], ["п", "о"], [" ", "b"], [" ч", "ис"], [" я", "вля"], ["и", "л"], ["ат", "е"], ["s", "t"], [" т", "ем"], ["ай", "те"], [" которы", "й"], ["у", "в"], ["n", "d"], ["ат", "ель"], [" пол", "уч"], [" св", "я"], ["г", "да"], ["ер", "и"], ["к", "ры"], [" б", "олее"], [" и", "х"], [" в", "ам"], [" д", "ел"], [" с", "то"], [" сп", "особ"], ["ро", "н"], [" ", "2"], ["ую", "т"], ["ол", "ж"], ["то", "ры"], [" ", "З"], ["а", "х"], ["ей", "ств"], ["зыва", "ет"], [" ", "«"], ["ен", "ных"], ["ни", "ч"], ["ти", "в"], [" про", "из"], ["в", "ать"], [" ", "="], ["и", "я"], [" неболь", "ш"], ["ку", "ю"], ["ред", "ел"], ["ф", "ор"], ["е", "г"], ["ол", "и"], [" ", "же"], [" ", "ш"], [" К", "ак"], [" п", "ре"], [" по", "ка"], [" с", "ам"], ["з", "и"], ["я", "ть"], ["ес", "ь"], ["с", "у"], [" з", "ав"], ["еб", "я"], ["ог", "о"], ["c", "h"], ["ал", "из"], ["д", "ел"], ["ще", "ств"], ["ы", "й"], [" ", "ж"], [" с", "лов"], ["л", "ения"], [" лю", "д"], ["ен", "т"], ["зу", "ль"], [" ", "*"], [" ре", "зуль"], [" ", "F"], [" м", "ы"], ["гра", "нич"], ["к", "т"], ["ко", "м"], ["п", "ро"], [" На", "пример"], [" м", "но"], [" а", "н"], [" ", "."], ["i", "t"], [" зада", "ч"], ["а", "ется"], ["г", "у"], ["ик", "а"], ["ра", "щ"], ["ров", "ать"], [" о", "гранич"], [" пер", "ем"], [" с", "ет"], [" ч", "а"], [" мог", "у"], ["ес", "ли"], [" у", "ч"], [" ус", "лов"], ["ув", "ств"], [" пер", "ед"], ["м", "ет"], [" е", "сть"], ["ел", "ов"], [" програм", "м"], ["П", "ри"], ["зов", "и"], [" ", "f"], [" использов", "ать"], [" м", "и"], [" резуль", "т"], ["ё", "м"], [" ", "если"], [" ", "фи"], ["i", "d"], ["р", "ом"], [" не", "ско"], [" ч", "елов"], [" о", "н"], [" про", "ек"], ["a", "s"], [" з", "ов"], [" зов", "ут"], ["ан", "д"], [" ка", "жд"], [" ошиб", "ку"], [" п", "от"], [" раз", "лич"], ["оч", "ь"], ["п", "е"], [" кон", "те"], [" пер", "е"], [" т", "ако"], ["ал", "и"], ["ет", "е"], [" мод", "ель"], ["a", "c"], ["i", "c"], ["ко", "торы"], [" ", "|"], [" м", "а"], [" след", "ующ"], [" э", "ле"], ["е", "шь"], ["ем", "у"], ["ра", "бот"], [" явля", "ется"], ["ал", "ень"], ["ик", "л"], ["ра", "ть"], [" из", "уч"], [" оп", "редел"], ["л", "у"], ["ь", "ше"], [" м", "не"], [" пом", "очь"], [" пр", "од"], [" то", "го"], ["во", "й"], ["ста", "нов"], ["ци", "он"], ["л", "ож"], ["ч", "ни"], ["    ", "  "], [" про", "ц"], ["ле", "й"], [" в", "е"], ["n", "ge"], ["ат", "ем"], [" б", "ез"], [" в", "ес"], [" вы", "пол"], ["er", "c"], ["ска", "жи"], ["в", "у"], [" ", "in"], [" ", "нов"], [" в", "ер"], [" д", "ейств"], [" зав", "ис"], [" п", "ор"], ["г", "а"], ["ла", "с"], ["о", "щ"], ["ра", "т"], ["erc", "el"], ["i", "m"], ["ер", "е"], ["ис", "ь"], [" зн", "ания"], ["л", "ен"], ["ров", "ания"], ["фе", "й"], [" На", "зови"], [" а", "ктуальный"], [" г", "ра"], [" не", "об"], ["Р", "ан"], ["Ран", "ьше"], ["в", "и"], ["ту", "п"], [" вы", "б"], [" други", "х"], ["u", "r"], ["в", "ращ"], [" у", "строй"], ["u", "b"], [" о", "ни"], [" под", "д"], [" ч", "увств"], [" чис", "ла"], ["a", "l"], ["мо", "жно"], ["н", "ако"], [" врем", "я"], [" д", "ень"], [" результ", "ат"], ["ов", "ать"], ["од", "ерж"], ["ци", "й"], ["я", "ми"], [" необ", "ход"], [" тако", "е"], [" челов", "е"], [" язы", "к"], ["аль", "но"], ["ко", "го"], ["у", "с"], [" на", "ч"], ["а", "з"], ["ит", "ор"], ["н", "ик"], ["че", "ство"], [" м", "алень"], [" м", "ас"], [" проц", "есс"], ["пи", "ши"], [" ", "Я"], [" неско", "лько"], [" обра", "бот"], ["P", "I"], ["и", "б"], ["ня", "ть"], ["ра", "я"], [" пом", "ощ"], ["п", "л"], [" с", "дел"], ["в", "ед"], ["ва", "я"], ["п", "ас"], ["у", "ется"], ["фор", "ма"], [" ", "s"], [" воз", "вращ"], ["ra", "nge"], [" д", "ос"], [" к", "оли"], [" э", "ти"], ["a", "r"], ["ческ", "ие"], [" об", "ла"], ["ен", "но"], ["ени", "ем"], ["ж", "ения"], ["ы", "м"], [" ну", "ж"], [" п", "рав"], [" с", "ебя"], ["u", "s"], [" П", "о"], [" и", "м"], [" пл", "ан"], [" так", "их"], ["0", "0"], ["а", "ют"], ["ве", "сти"], ["й", "те"], ["п", "ы"], ["р", "ет"], ["я", "д"], [" во", "прос"], ["д", "нако"], [" буд", "ет"], [" по", "з"], ["сто", "я"], [" о", "на"], [" пом", "ог"], ["ен", "ной"], ["с", "о"], ["с", "ы"], ["у", "з"], [" ", "range"], [" в", "и"], [" вес", "а"], [" малень", "кую"], [" так", "ие"], [" х", "от"], ["ал", "а"], ["и", "ль"], [" ", "S"], [" з", "нач"], [" кото", "рая"], [" пред", "ска"], [" про", "вер"], [" сп", "ис"], [" ст", "ра"], [" услов", "ий"], ["ани", "й"], ["ь", "те"], [" П", "ри"], [" в", "ас"], [" д", "и"], [" ре", "ш"], [" сл", "ож"], ["d", "e"], ["При", "вет"], ["а", "ющ"], ["го", "тов"], ["и", "и"], ["мен", "ты"], ["ческ", "их"], ["ь", "ю"], [" перем", "енных"], [" те", "х"], ["m", "e"], ["а", "ции"], ["б", "ат"], [" име", "ет"], [" н", "ет"], [" на", "ходит"], [" сво", "и"], ["Д", "ля"], ["которы", "е"], ["ст", "е"], [" О", "б"], [" возвращ", "ает"], [" к", "оро"], [" с", "ред"], [" те", "кст"], ["ит", "ся"], ["к", "тив"], ["н", "ить"], ["рил", "ож"], [" ", "th"], [" ", "v"], [" раз", "работ"], [" следующ", "ий"], ["с", "а"], [" ", "4"], [" ", "ор"], [" при", "чи"], ["то", "му"], ["унк", "ция"], ["ши", "н"], [" д", "об"], [" может", "е"], [" общ", "аться"], [" это", "м"], ["a", "n"], ["ени", "ю"], [" ", "M"], [" ко", "гда"], [" ком", "анд"], [" ме", "жд"], [" небольш", "им"], [" п", "ог"], [" с", "бор"], [" с", "одерж"], ["en", "t"], ["ан", "а"], ["и", "в"], [" в", "ним"], [" воз", "можно"], [" использ", "уют"], [" сдел", "ать"], [" сл", "уч"], ["ани", "з"], ["ку", "с"], ["ци", "аль"], [" кото", "ро"], [" на", "ш"], [" обработ", "ки"], [" ч", "ер"], ["д", "о"], ["од", "а"], ["с", "е"], [" ", "t"], [" а", "в"], [" на", "строй"], [" програм", "ми"], [" со", "зн"], ["не", "е"], [" ", "L"], [" ин", "форма"], [" у", "д"], ["o", "t"], ["П", "о"], ["ст", "ру"], ["ь", "ют"], [" в", "ид"], [" п", "рилож"], [" т", "реб"], [" ток", "ен"], ["i", "on"], ["з", "в"], ["ра", "уз"], ["ств", "е"], ["я", "х"], [" ", "/"], [" ", "3"], [" д", "а"], [" д", "е"], [" други", "е"], [" комп", "ьют"], [" м", "ат"], [" находит", "ся"], [" от", "кры"], [" п", "а"], [" подд", "ерж"], [" предска", "зывает"], [" то", "лько"], [" функ", "ции"], ["мен", "та"], ["ность", "ю"], ["о", "не"], ["с", "п"], ["ст", "ей"], [" конте", "кст"], [" ней", "рон"], [" нейросет", "ей"], [" перед", "а"], [" прод", "олж"], [" сво", "й"], [" ф", "ак"], [" это", "го"], [" язы", "ка"], ["nd", "ro"], ["ndro", "id"], ["p", "i"], ["ка", "з"], ["ч", "ит"], [" дос", "туп"], [" ис", "то"], [" ис", "ход"], [" межд", "у"], [" о", "ч"], [" об", "ъ"], ["ров", "ан"], [" ", "R"], [" Н", "е"], [" ва", "ше"], [" з", "ву"], [" на", "бор"], [" огранич", "ены"], ["а", "ю"], ["ри", "и"], [" ", "c"], [" f", "or"], [" Мо", "и"], [" з", "д"], [" поз", "во"], ["М", "огу"], ["шо", "е"], [" пред", "лож"], ["з", "ни"], ["уй", "те"], ["х", "ож"], [" ", "V"], [" д", "у"], [" из", "обра"], [" л", "уч"], [" п", "ольз"], [" произ", "вод"], [" работ", "ает"], [" с", "к"], [" у", "станов"], [" ц", "икл"], ["u", "t"], ["имо", "сти"], ["ч", "ис"], ["ш", "ить"], [" ", "G"], [" ", "i"], ["    ", "    "], [" Т", "ак"], [" б", "у"], [" выб", "рать"], [" и", "мен"], [" м", "ного"], [" проек", "т"], [" су", "ществ"], [" ф", "ай"], [" ф", "ор"], ["д", "ра"], ["и", "ру"], ["с", "ов"], [" О", "днако"], [" з", "атем"], [" к", "ор"], [" от", "но"], ["зыва", "ют"], ["ле", "з"], ["ля", "р"], ["об", "од"], ["т", "ак"], [" ", "`"], [" ", "o"], [" A", "ndroid"], [" б", "ло"], [" жи", "зни"], [" настрой", "ки"], [" обра", "з"], ["in", "t"], ["бат", "ыва"], ["е", "х"], ["ж", "ение"], ["л", "ы"], ["ф", "фе"], [" О", "на"], [" ви", "де"], [" мно", "же"], [" помощ", "ью"], [" пре", "обра"], [" с", "ин"], [" с", "ло"], [" сервер", "у"], [" э", "ко"], ["в", "ле"], ["ен", "ная"], ["по", "з"], ["э", "тому"], [" a", "pi"], [" И", "н"], [" ж", "ел"], [" систем", "ы"], ["Е", "сли"], ["н", "ер"], ["р", "я"], ["уч", "ение"], [" ", "K"], [" v", "ercel"], [" вы", "вод"], [" переда", "ёт"], ["е", "го"], ["з", "нач"], ["ос", "ле"], ["поз", "итор"], ["си", "и"], [" ", "Л"], [" Д", "ля"], [" Мо", "жно"], [" г", "де"], [" д", "ол"], [" и", "де"], [" н", "и"], [" про", "б"], [" сообщ", "ения"], [" те", "к"], [" ч", "ём"], ["or", "d"], ["ани", "и"], ["ги", "и"], ["е", "в"], ["ел", "ю"], ["лед", "ов"], ["м", "от"], ["мен", "ь"], ["пол", "н"], [" ", "re"], [" В", "ы"], [" врем", "ени"], [" и", "г"], [" об", "ес"], [" обес", "пе"], [" од", "но"], [" п", "у"], [" польз", "ов"], [" про", "сто"], [" эле", "кт"], ["л", "ав"], [" ав", "то"], [" боль", "ше"], [" ва", "ш"], [" д", "олж"], [" ин", "стру"], [" обра", "т"], [" пог", "овор"], [" при", "м"], [" те", "б"], [" у", "мень"], [" х", "о"], [" э", "та"], ["e", "t"], ["j", "s"], ["П", "ро"], ["ав", "ать"], ["ки", "е"], ["ко", "мен"], ["ни", "ца"], ["ня", "т"], ["щ", "ё"], [" а", "р"], [" вы", "чис"], [" кон", "це"], [" об", "ъяс"], [" пот", "реб"], [" ре", "позитор"], [" ш", "ут"], ["о", "ш"], ["ру", "д"], [" П", "осле"], [" Это", "т"], [" выпол", "ня"], [" задач", "ами"], [" ку", "р"], [" люд", "ей"], [" мно", "ги"], [" тек", "ста"], ["ве", "ст"], ["г", "н"], ["ед", "и"], ["ол", "н"], ["ть", "ся"], ["у", "р"], ["ша", "я"], [" ", "w"], [" в", "з"], [" в", "ред"], [" в", "ход"], [" з", "на"], [" интер", "фей"], [" м", "ет"], [" не", "го"], [" от", "прав"], [" программи", "рования"], [" с", "ай"], [" т", "ри"], ["f", "t"], ["ur", "n"], ["л", "уч"], ["о", "пас"], ["ч", "ас"], ["я", "ет"], [" ", "ги"], [" p", "ython"], [" интер", "ес"], [" п", "ак"], [" п", "ит"], [" с", "ей"], [" св", "обод"], [" то", "м"], ["l", "a"], ["Н", "ей"], ["ам", "ять"], ["ел", "енной"], ["оро", "в"], ["ц", "ы"], [" ", "0"], [" дру", "г"], [" код", "а"], [" кон", "т"], [" н", "ай"], [" на", "пример"], [" об", "нов"], [" п", "ра"], [" пор", "яд"], [" сей", "час"], [" у", "г"], ["t", "urn"], ["ал", "ись"], ["гор", "ит"], ["ес", "то"], ["жд", "ения"], ["ним", "ает"], ["ск", "ий"], ["ц", "ен"], [" ", "C"], [" бы", "ло"], [" коро", "т"], [" мод", "ели"], [" н", "их"], [" оч", "ень"], [" сп", "е"], [" ц", "ел"], [" ч", "ас"], [" э", "ффе"], ["l", "o"], ["аниз", "м"], ["д", "и"], ["л", "горит"], ["ческ", "ий"], [" М", "огу"], [" в", "ли"], [" г", "ру"], [" м", "ин"], [" обла", "сти"], [" поговор", "им"], [" рас", "скажи"], [" сбор", "ки"], [" систем", "у"], ["ля", "тор"], ["ля", "ть"], ["ни", "ков"], ["о", "ят"], ["ствен", "ного"], ["т", "им"], ["то", "д"], [" Т", "е"], [" во", "зд"], [" за", "мет"], [" за", "прос"], [" коли", "чество"], [" небольш", "ими"], [" проб", "ле"], [" с", "ч"], [" сет", "и"], [" со", "став"], ["in", "g"], ["r", "int"], ["ко", "е"], ["т", "есь"], ["ши", "х"], [" ", "D"], [" Ин", "тер"], [" О", "н"], [" к", "ар"], [" кажд", "ой"], [" ма", "шин"], [" нейросет", "ями"], [" обра", "батыва"], [" созд", "ания"], [" тем", "ы"], ["r", "i"], ["ub", "l"], ["ла", "г"], ["ни", "е"], ["п", "от"], [" ", "ши"], [" авто", "мат"], [" неболь", "шое"], [" необход", "имо"], [" п", "ар"], [" по", "лез"], [" пов", "тор"], [" пред", "став"], [" репозитор", "ий"], [" с", "м"], [" чер", "ез"], ["s", "h"], ["в", "ы"], ["из", "ации"], ["им", "у"], ["од", "е"], ["п", "а"], ["ё", "н"], [" из", "мен"], [" по", "ч"], [" при", "вести"], [" произ", "ош"], ["as", "s"], ["p", "t"], ["u", "x"], ["ера", "ту"], ["с", "ь"], ["ф", "ика"], ["ши", "л"], [" ", "+"], [" ", "N"], [" ", "m"], [" доб", "ав"], [" использ", "у"], [" к", "лас"], [" обра", "зов"], [" от", "д"], [" ошиб", "ки"], [" с", "и"], [" случ", "а"], [" челове", "ка"], ["а", "б"], ["грам", "м"], ["ит", "у"], ["к", "ти"], ["комен", "д"], ["ож", "ет"], ["оло", "ж"], ["п", "орт"], ["ско", "м"], ["че", "шь"], [" ", "T"], [" th", "e"], [" Об", "учение"], [" за", "д"], [" комп", "он"], [" компьют", "ер"], [" множе", "ство"], [" обеспе", "ч"], [" образ", "ом"], [" обуч", "ении"], [" од", "ну"], [" по", "нят"], [" функ", "ций"], [" хо", "чешь"], [" э", "нер"], [" язы", "ке"], ["ch", "at"], ["М", "еня"], ["ва", "ет"], ["ли", "н"], ["оч", "ему"], ["про", "б"], ["с", "ледов"], ["ско", "го"], ["чес", "кого"], [" ", "U"], [" ", "X"], [" О", "ни"], [" б", "ес"], [" без", "опас"], [" г", "овор"], [" действ", "ие"], [" е", "щё"], [" зн", "аком"], [" ме", "тод"], [" ос", "об"], [" р", "ус"], [" сво", "ю"], ["k", "en"], ["ани", "ем"], ["г", "ов"], ["и", "на"], ["ик", "е"], ["итель", "но"], ["о", "став"], ["про", "ст"], ["хож", "е"], ["чит", "ыва"], ["я", "ти"], [" ", "h"], [" ", "ро"], [" R", "e"], [" выполня", "ется"], [" дел", "о"], [" завис", "имости"], [" на", "пиши"], [" на", "стро"], [" общ", "ения"], [" пример", "ы"], [" со", "в"], [" умень", "шить"], [" эти", "х"], ["A", "PI"], ["ac", "t"], ["d", "d"], ["de", "f"], ["n", "a"], ["re", "e"], ["ающ", "их"], ["ен", "о"], ["итель", "ные"], ["росет", "ь"], ["ще", "ства"], ["я", "м"], [" ", "O"], [" бло", "к"], [" во", "й"], [" до", "полн"], [" люд", "и"], [" мат", "ери"], [" н", "ав"], [" на", "с"], [" от", "лич"], [" позво", "ляет"], [" преобра", "зу"], [" произош", "ло"], [" раз", "в"], [" спе", "ци"], ["ass", "w"], ["assw", "ord"], ["in", "ux"], ["p", "y"], ["е", "ж"], ["ки", "й"], ["кс", "том"], ["рауз", "ер"], ["ю", "сь"], [" ", "I"], [" ", "Ф"], [" ", "•"], [" A", "PI"], [" Те", "перь"], [" име", "ют"], [" к", "аль"], [" наш", "ем"], [" ну", "ля"], [" предлож", "ить"], [" пример", "ом"], [" с", "кры"], [" спис", "ки"], [" то", "р"], [" это", "й"], ["a", "k"], ["or", "t"], ["П", "ом"], ["г", "овор"], ["ен", "ные"], ["ко", "вая"], ["чес", "кой"], [" ", "W"], [" М", "ех"], [" П", "рав"], [" буд", "ут"], [" вним", "ания"], [" е", "е"], [" из", "вест"], [" ис", "кус"], [" к", "ред"], [" каль", "ку"], [" луч", "ше"], [" меня", "ет"], [" обрабатыва", "ет"], [" основ", "е"], [" па", "у"], [" пак", "ет"], [" под", "ход"], [" преобразу", "ет"], [" рас", "прост"], [" ток", "ены"], [" цикл", "ы"], ["at", "ion"], ["ubl", "ic"], ["В", "от"], ["Ней", "росеть"], ["Т", "ак"], ["Т", "ебя"], ["Ц", "икл"], ["ера", "х"], ["мат", "ь"], ["оло", "ги"], ["пу", "ляр"], [" Е", "го"], [" З", "ем"], [" У", "читыва"], [" вы", "со"], [" з", "ак"], [" л", "ок"], [" мо", "з"], [" на", "пис"], [" най", "ти"], [" не", "которые"], [" ор", "г"], [" отд", "ель"], [" при", "нимает"], [" ре", "шил"], [" со", "х"], [" теб", "я"], [" у", "луч"], [" ц", "ик"], [" цел", "ом"], ["e", "v"], ["в", "ар"], ["иб", "ли"], ["ибли", "от"], ["иру", "й"], ["ле", "т"], ["ог", "да"], ["оч", "у"], ["прос", "то"], ["ро", "б"], ["ст", "ан"], ["т", "ра"], ["ч", "ной"], ["ч", "ь"], ["я", "в"], [" p", "rint"], [" re", "turn"], [" Б", "раузер"], [" Мех", "анизм"], [" включ", "ается"], [" дан", "ные"], [" е", "ё"], [" ис", "следов"], [" кальку", "лятор"], [" которо", "е"], [" объяс", "нить"], [" п", "и"], [" повтор", "яет"], [" разв", "ит"], [" сво", "ей"], [" син", "так"], [" случа", "е"], [" со", "от"], [" т", "ер"], [" ч", "ате"], [" ча", "сть"], ["js", "on"], ["Им", "порт"], ["На", "чни"], ["Про", "грамм"], ["Э", "то"], ["ал", "о"], ["к", "ак"], ["о", "на"], ["ром", "е"], ["си", "ль"], ["ша", "ть"], [" V", "ercel"], [" p", "ublic"], [" В", "от"], [" Интер", "фей"], [" Интерфей", "с"], [" Прав", "ая"], [" а", "лгорит"], [" ан", "ализ"], [" б", "ел"], [" б", "иблиот"], [" включ", "ая"], [" вс", "еленной"], [" вывод", "ит"], [" гра", "ница"], [" за", "то"], [" замет", "ки"], [" знаком", "ые"], [" изуч", "и"], [" интерфей", "су"], [" использ", "уется"], [" использ", "уй"], [" конте", "кстом"], [" лок", "ально"], [" на", "д"], [" не", "просто"], [" обуч", "енная"], [" отправ", "ляет"], [" пау", "зу"], [" пл", "ат"], [" по", "силь"], [" по", "этому"], [" пока", "зывают"], [" пос", "лед"], [" посиль", "ное"], [" програм", "му"], [" продолж", "им"], [" р", "у"], [" различ", "ных"], [" свя", "зан"], [" свя", "зывает"], [" соб", "ери"], [" ст", "ать"], [" шут", "ить"], ["na", "me"], ["Импорт", "ируй"], ["По", "хоже"], ["Программ", "ист"], ["аль", "ные"], ["н", "ей"], ["о", "е"], ["то", "ров"], ["ты", "е"], ["ф", "ер"], ["ф", "ункция"], [" ", "def"], [" ", "n"], [" ", "{"], [" бы", "ла"], [" вер", "оят"], [" во", "с"], [" вопрос", "ы"], [" дру", "го"], [" зд", "оров"], [" ком", "мента"], [" мин", "ут"], [" на", "зв"], [" нач", "ать"], [" о", "г"], [" по", "пуляр"], [" раз", "говор"], [" с", "вет"], [" свобод", "но"], [" соот", "вет"], [" язы", "ковая"], ["b", "o"], ["ис", "ти"], ["ки", "х"], ["н", "ут"], ["ор", "а"], ["р", "ес"], ["с", "ис"], ["ск", "ие"], ["ст", "ы"], ["че", "ства"], [" Re", "act"], [" ар", "гу"], [" бы", "ли"], [" ва", "жно"], [" на", "уч"], [" о", "цен"], [" поряд", "ок"], [" пос", "ле"], [" ра", "бо"], [" различ", "ные"], [" созн", "ание"], [" тем", "п"], [" тех", "но"], [" у", "ров"], ["i", "l"], ["i", "v"], ["p", "e"], ["а", "ются"], ["ани", "ю"], ["д", "у"], ["н", "г"], ["ра", "с"], ["ско", "й"], ["щ", "и"], ["ще", "е"], ["ят", "ель"], [" М", "од"], [" автомат", "изации"], [" боль", "шо"], [" д", "ви"], [" завис", "ит"], [" информа", "цию"], [" про", "ходит"], [" синтак", "сис"], [" со", "циаль"], [" т", "руд"], [" те", "ор"], [" темп", "ерату"], [" уд", "ал"], [" устрой", "ства"], [" хот", "ите"], ["а", "ция"], ["ан", "ы"], ["еб", "е"], ["ер", "жи"], ["же", "шь"], ["иб", "олее"], ["ка", "х"], ["м", "ос"], ["од", "ы"], [" ", "5"], [" ", "B"], [" 1", "0"], [" возд", "у"], [" д", "ен"], [" д", "ет"], [" дру", "ж"], [" за", "м"], [" использов", "ались"], [" использов", "аться"], [" неболь", "шая"], [" нуж", "ны"], [" оп", "ы"], [" при", "готов"], [" ра", "ст"], [" с", "ебе"], [" с", "ем"], [" сервер", "ов"], [" скры", "тые"], [" соответ", "ств"], [" ц", "вет"], [" ч", "его"], ["P", "ython"], ["i", "s"], ["u", "n"], ["С", "ер"], ["в", "ые"], ["к", "ами"], ["н", "ет"], ["о", "з"], ["ор", "е"], ["ь", "е"], [" На", "чни"], [" аргу", "менты"], [" друж", "елю"], [" дружелю", "б"], [" имен", "ем"], [" использов", "ания"], [" команд", "у"], [" коммента", "рии"], [" мо", "жешь"], [" необход", "им"], [" обуч", "ающих"], [" объ", "ек"], [" п", "ла"], [" понят", "ным"], [" пред", "остав"], [" причи", "нять"], [" созд", "ать"], [" цик", "лов"], [" эта", "пы"], ["at", "e"], ["er", "s"], ["Ф", "ункция"], ["ан", "т"], ["ас", "скажи"], ["ж", "да"], ["к", "ру"], ["ля", "ют"], ["п", "ом"], ["ч", "ем"], [" K", "ra"], [" Kra", "ken"], [" a", "dd"], [" Р", "ос"], [" Так", "же"], [" Учитыва", "ю"], [" вс", "ё"], [" да", "же"], [" до", "сти"], [" з", "ем"], [" зада", "чи"], [" им", "я"], [" корот", "кие"], [" набор", "ом"], [" нав", "ы"], [" ошиб", "аться"], [" помог", "аю"], [" рас", "су"], [" рассу", "ждения"], [" ре", "пл"], [" репл", "ики"], [" синтаксис", "ом"], [" т", "вой"], [" то", "ч"], [" ча", "сти"], [" ши", "ро"], [" явля", "ются"], ["e", "x"], ["o", "g"], ["Сер", "ые"], ["гн", "ит"], ["ра", "ня"], ["ь", "я"], ["я", "ют"], [" м", "ен"], [" о", "пис"], [" од", "ин"], [" по", "ни"], [" поддерж", "ать"], [" сло", "жно"], [" соб", "ак"], [" соб", "ой"], [" эко", "ном"], ["o", "k"], ["В", "ы"], ["а", "д"], ["ализ", "и"], ["ен", "та"], ["ит", "и"], ["ка", "жи"], ["н", "ем"], ["н", "ите"], ["то", "го"], ["ц", "у"], ["чес", "кую"], ["ческ", "и"], ["ш", "ение"], [" t", "o"], [" а", "т"], [" г", "лу"], [" день", "ги"], [" до", "статочно"], [" е", "сте"], [" к", "ол"], [" нов", "ых"], [" основ", "ы"], [" пользов", "ате"], [" рас", "п"], [" с", "иту"], [" со", "стоя"], [" сто", "ро"], [" у", "т"], ["d", "o"], ["er", "name"], ["ел", "о"], ["то", "ч"], ["у", "щ"], ["це", "п"], ["ш", "им"], [" а", "ктив"], [" г", "ода"], [" ден", "ег"], [" кред", "ит"], [" л", "ег"], [" л", "ож"], [" распрост", "ран"], [" ре", "коменд"], [" с", "ни"], [" созн", "ания"], [" у", "прав"], ["c", "ri"], ["cri", "pt"], ["p", "en"], ["С", "о"], ["а", "п"], ["б", "ед"], ["г", "ру"], ["зы", "вать"], ["и", "ли"], ["ит", "есь"], ["мы", "с"], ["ос", "ь"], ["с", "их"], ["си", "в"], ["ст", "ях"], ["то", "ро"], ["ё", "р"], [" ", "Ис"], [" библиот", "е"], [" вычис", "ляет"], [" жи", "зн"], [" изобра", "ж"], [" используют", "ся"], [" л", "ет"], [" мо", "ё"], [" на", "иболее"], [" от", "с"], [" по", "проб"], [" получ", "ить"], [" прим", "ерах"], [" про", "ис"], [" работ", "ы"], [" я", "дра"], ["c", "e"], ["c", "o"], ["e", "st"], ["ат", "ы"], ["атель", "но"], ["б", "и"], ["е", "щ"], ["н", "ес"], ["ом", "у"], ["то", "й"], ["ш", "ения"], [" С", "олн"], [" в", "за"], [" вним", "ание"], [" возду", "х"], [" все", "го"], [" г", "оду"], [" друго", "й"], [" к", "ва"], [" ку", "ль"], [" ми", "ре"], [" не", "которы"], [" отдель", "ных"], [" отно", "с"], [" п", "сих"], [" пр", "оду"], [" пра", "кти"], [" соб", "ствен"], [" т", "в"], [" установ", "ить"], [" х", "очу"], ["ic", "e"], ["it", "y"], ["p", "ort"], ["Н", "е"], ["аль", "ной"], ["аль", "ных"], ["е", "ля"], ["ик", "у"], ["ле", "м"], ["м", "ож"], ["ог", "ра"], ["рат", "ить"], ["у", "б"], ["ша", "йте"], ["я", "щ"], [" ", "ед"], [" ", "ци"], [" Б", "ог"], [" Ка", "чество"], [" Мод", "ель"], [" Н", "о"], [" ан", "г"], [" ан", "ти"], [" ваше", "й"], [" г", "ен"], [" г", "ол"], [" дружелюб", "но"], [" из", "б"], [" как", "ие"], [" обнов", "ляет"], [" пот", "ер"], [" прилож", "ения"], [" провер", "яют"], [" сто", "л"], [" сч", "ита"], [" т", "акой"], [" у", "в"], [" функ", "цию"], [" элект", "рон"], ["1", "0"], ["П", "ере"], ["П", "очему"], ["а", "ри"], ["ат", "и"], ["ве", "тов"], ["г", "но"], ["е", "лей"], ["ен", "ный"], ["ин", "г"], ["ми", "н"], ["но", "му"], ["рет", "ь"], ["у", "ж"], ["че", "стве"], ["ш", "у"], ["ы", "вать"], [" ", "x"], ["    ", "      "], [" Р", "аз"], [" ва", "ри"], [" все", "х"], [" други", "ми"], [" з", "р"], [" которы", "х"], [" куль", "ту"], [" машин", "ного"], [" на", "зыва"], [" о", "ко"], [" об", "ы"], [" оп", "тим"], [" п", "амять"], [" п", "ло"], [" с", "вер"], [" с", "ол"], [" след", "ует"], [" спис", "ок"], [" техно", "ло"], [" фи", "зи"], [" час", "то"], ["al", "l"], ["p", "ut"], ["u", "l"], ["ен", "ным"], ["ет", "ь"], ["и", "п"], ["ли", "чи"], ["ож", "ешь"], ["пот", "реб"], ["ров", "ание"], ["ск", "их"], ["то", "е"], ["то", "к"], ["у", "ществ"], ["ч", "ных"], ["я", "з"], ["ё", "л"], [" З", "а"], [" вза", "им"], [" долж", "ен"], [" ин", "т"], [" ко", "с"], [" м", "ик"], [" многи", "х"], [" но", "во"], [" обуч", "ение"], [" оп", "ера"], [" п", "е"], [" по", "ж"], [" по", "ис"], [" по", "ним"], [" по", "стоя"], [" пом", "ожет"], [" постоя", "н"], [" пред", "п"], [" работ", "ать"], [" раз", "ных"], [" ре", "цеп"], [" ст", "ав"], [" т", "ра"], [" т", "ре"], [" те", "ле"], [" у", "же"], [" у", "зн"], [" фай", "л"], [" ц", "ент"], [" эффе", "ктив"], ["c", "on"], ["e", "c"], ["в", "ол"], ["ен", "ты"], ["ж", "им"], ["ку", "п"], ["ль", "ку"], ["н", "ения"], ["но", "с"], ["п", "ли"], ["п", "п"], ["пл", "ат"], ["ско", "льку"], [" ", "E"], [" ", "l"], [" ", "Ч"], [" 1", "9"], [" б", "ли"], [" и", "д"], [" кото", "ром"], [" м", "еди"], [" моз", "г"], [" на", "б"], [" на", "п"], [" обрат", "иться"], [" п", "ы"], [" реш", "ения"], [" сам", "ых"], [" сво", "их"], [" сет", "ь"], [" содерж", "ит"], [" услов", "ия"], ["i", "g"], ["u", "e"], ["y", "pe"], ["ал", "ог"], ["б", "у"], ["в", "айте"], ["ва", "ем"], ["вле", "к"], ["ет", "ы"], ["за", "но"], ["ино", "в"], ["итель", "ных"], ["к", "ам"], ["каз", "ать"], ["л", "ик"], ["ли", "й"], ["ну", "ть"], ["р", "есс"], ["то", "ра"], ["фе", "с"], ["ще", "го"], ["ы", "ми"], [" L", "inux"], [" Зем", "ли"], [" а", "уд"], [" б", "рауз"], [" ва", "ж"], [" глу", "бо"], [" д", "ва"], [" дел", "ать"], [" е", "ще"], [" есте", "ственного"], [" жив", "от"], [" за", "пу"], [" изобра", "жения"], [" к", "акой"], [" ка", "пу"], [" л", "е"], [" мо", "щ"], [" н", "ед"], [" на", "ше"], [" от", "ключ"], [" откры", "ты"], [" пер", "в"], [" под", "роб"], [" пол", "ностью"], [" сай", "т"], [" свя", "з"], [" треб", "ует"], [" х", "ара"], ["S", "D"], ["a", "v"], ["m", "o"], ["О", "т"], ["а", "ем"], ["ет", "и"], ["мен", "т"], ["мот", "реть"], ["ри", "п"], ["ш", "ки"], [" ", "J"], [" ", "Х"], [" ", "рав"], [" О", "т"], [" Рос", "сии"], [" в", "не"], [" использу", "я"], [" ко", "не"], [" коли", "чества"], [" н", "ем"], [" на", "прав"], [" на", "ру"], [" о", "знач"], [" особ", "енно"], [" пов", "ер"], [" про", "фес"], [" ре", "ализ"], [" со", "сто"], [" т", "во"], [" устрой", "ство"], [" это", "т"], [" я", "й"], ["i", "f"], ["На", "пиши"], ["гу", "ра"], ["де", "юсь"], ["ес", "ур"], ["ж", "у"], ["и", "бо"], ["имо", "сть"], ["итель", "ность"], ["к", "рет"], ["лю", "д"], ["р", "ен"], ["ст", "ре"], ["ци", "ей"], ["ч", "ер"], ["ще", "ствен"], ["ющ", "ие"], ["я", "н"], [" o", "f"], [" а", "том"], [" большо", "й"], [" возможно", "сти"], [" вы", "бор"], [" вы", "ход"], [" д", "ав"], [" ду", "ма"], [" использ", "ует"], [" к", "лав"], [" кажд", "ый"], [" клав", "и"], [" м", "есто"], [" меди", "ци"], [" мик", "ро"], [" многи", "е"], [" не", "с"], [" нейросет", "и"], [" оп", "ас"], [" опера", "цион"], [" подд", "ержи"], [" р", "есур"], [" рас", "ход"], [" с", "мыс"], [" с", "ти"], [" сох", "раня"], [" ст", "ро"], [" ст", "ру"], [" стру", "кту"], [" уч", "а"], [" ц", "ель"], ["S", "cript"], ["_", "t"], ["as", "h"], ["e", "s"], ["el", "e"], ["o", "ur"], ["ra", "m"], ["Со", "зд"], ["ар", "я"], ["бы", "ти"], ["итель", "ного"], ["мен", "тов"], ["н", "ение"], ["ни", "я"], ["ов", "ание"], ["по", "зн"], ["ра", "ж"], ["рос", "ить"], ["сто", "й"], ["та", "х"], ["ф", "лик"], ["ч", "ение"], ["ческ", "им"], [" ", "7"], [" 2", "0"], [" a", "nd"], [" А", "н"], [" безопас", "ности"], [" брауз", "ере"], [" в", "ар"], [" в", "еб"], [" д", "ов"], [" зн", "аний"], [" зна", "ю"], [" изображ", "ений"], [" имен", "но"], [" кон", "крет"], [" ку", "ри"], [" м", "ар"], [" нейросет", "ь"], [" о", "щ"], [" од", "ной"], [" пло", "х"], [" пов", "ы"], [" пре", "иму"], [" рабо", "ту"], [" рас", "позн"], [" ре", "ак"], [" с", "ил"], [" систем", "а"], [" со", "быти"], [" существ", "ует"], [" устрой", "ств"], [" фи", "ль"], ["а", "ту"], ["ал", "ьный"], ["али", "чи"], ["ат", "ив"], ["в", "аться"], ["гру", "з"], ["ер", "о"], ["иль", "но"], ["ин", "у"], ["к", "им"], ["к", "лад"], ["ла", "й"], ["уд", "ь"], ["ч", "ик"], ["ь", "ми"], [" ", "готов"], [" F", "F"], [" К", "огда"], [" алгорит", "м"], [" ат", "мос"], [" боль", "ш"], [" в", "кус"], [" ваше", "го"], [" виде", "о"], [" вы", "с"], [" жизн", "ь"], [" з", "ако"], [" з", "аня"], [" за", "б"], [" исследов", "ания"], [" к", "ра"], [" к", "ру"], [" м", "ед"], [" м", "оду"], [" некоторы", "х"], [" обы", "чно"], [" пож", "алуйста"], [" при", "мен"], [" ре", "к"], [" рекоменд", "уется"], [" с", "ах"], [" сп", "рав"], [" сторо", "ны"], [" те", "сти"], [" у", "потреб"], [" узн", "ать"], [" фак", "торов"], [" х", "оро"], [" хара", "к"], [" харак", "тер"], [" э", "кс"], ["F", "or"], ["a", "g"], ["a", "nd"], ["f", "or"], ["i", "z"], ["ra", "c"], ["u", "th"], ["а", "зов"], ["ал", "ся"], ["аль", "ного"], ["в", "ат"], ["д", "ро"], ["д", "ы"], ["лаг", "од"], ["ни", "и"], ["ни", "й"], ["ни", "х"], ["ов", "ания"], ["п", "од"], ["си", "он"], ["фи", "гура"], ["ч", "ики"], [" ", "'"], [" 2", "00"], [" З", "атем"], [" П", "амять"], [" а", "с"], [" в", "ме"], [" воз", "мож"], [" г", "оло"], [" глубо", "кого"], [" д", "оро"], [" зву", "ки"], [" к", "то"], [" клас", "си"], [" матери", "ал"], [" ми", "ра"], [" на", "у"], [" неско", "ль"], [" об", "лад"], [" од", "ним"], [" по", "яв"], [" поч", "ему"], [" про", "ш"], [" с", "ков"], [" со", "вет"], [" сол", "не"], [" социаль", "ных"], [" ст", "иму"], [" стра", "на"], [" удал", "ить"], [" ц", "ен"], [" эле", "менты"], ["M", "L"], ["st", "all"], ["Так", "же"], ["в", "ания"], ["ва", "ется"], ["вод", "ить"], ["ен", "тов"], ["з", "да"], ["й", "тесь"], ["к", "ну"], ["м", "ун"], ["н", "ики"], ["на", "д"], ["но", "ми"], ["оне", "чно"], ["ров", "ер"], ["сп", "ек"], ["ств", "ие"], ["ств", "ом"], ["у", "м"], ["ч", "ить"], ["чно", "е"], [" ", "\\"], [" ", "Ц"], [" G", "it"], [" В", "с"], [" М", "а"], [" Т", "ы"], [" в", "оды"], [" вли", "я"], [" воз", "ник"], [" д", "ис"], [" дол", "жно"], [" и", "гра"], [" исто", "ри"], [" кон", "флик"], [" м", "яс"], [" микро", "ф"], [" на", "чи"], [" нуж", "ный"], [" о", "став"], [" оп", "ред"], [" ощ", "ущ"], [" предп", "оч"], [" проду", "к"], [" просто", "й"], [" р", "оль"], [" распозн", "ав"], [" с", "ко"], [" слов", "а"], [" слож", "ных"], [" созд", "авать"], [" ст", "ак"], [" ув", "ели"], [" ус", "лу"], [" ус", "пе"], [" ч", "ая"], [" ч", "ет"], [" ч", "ит"], [" э", "к"], ["U", "R"], ["a", "ge"], ["ak", "e"], ["g", "ram"], ["r", "ice"], ["u", "p"], ["us", "ername"], ["Н", "о"], ["О", "днако"], ["и", "ю"], ["из", "м"], ["итель", "ности"], ["лай", "н"], ["лас", "но"], ["не", "го"], ["но", "стей"], ["ос", "то"], ["си", "я"], ["ск", "ая"], ["ч", "ным"], ["чес", "кое"], ["ческ", "ая"], ["ческ", "ими"], ["ь", "и"], [" ", "["], [" ", "–"], ["  ", " "], [" A", "r"], [" Не", "которые"], [" анг", "лий"], [" вы", "г"], [" г", "е"], [" де", "ятель"], [" з", "ел"], [" за", "бы"], [" и", "мет"], [" имет", "ь"], [" информа", "ции"], [" использу", "ем"], [" кофе", "ина"], [" м", "ил"], [" ме", "ст"], [" н", "аличи"], [" на", "ход"], [" нап", "ря"], [" нуж", "ен"], [" око", "ло"], [" определ", "ить"], [" отключ", "ить"], [" повер", "х"], [" пони", "ма"], [" пос", "мотреть"], [" раз", "ные"], [" развит", "ия"], [" ре", "жим"], [" результ", "ате"], [" с", "ег"], [" с", "ли"], [" с", "х"], [" сов", "рем"], [" сто", "ит"], [" уч", "ит"], [" фи", "н"], [" х", "ол"], [" х", "орошо"], [" цвет", "а"], [" яй", "ца"], ["5", "0"], ["a", "b"], ["a", "y"], ["e", "d"], ["m", "ent"], ["Д", "а"], ["К", "роме"], ["Р", "асскажи"], ["б", "удь"], ["вед", "ом"], ["еж", "ать"], ["ен", "ное"], ["ла", "м"], ["ок", "ар"], ["от", "а"], ["при", "яти"], ["ров", "аться"], ["ти", "ва"], ["ч", "а"], ["ющ", "их"], ["я", "г"], [" ", "_"], [" ", "ту"], [" J", "av"], [" Jav", "a"], [" w", "h"], [" П", "од"], [" По", "этому"], [" Со", "зд"], [" бы", "стро"], [" виде", "окар"], [" включ", "ает"], [" возможно", "сть"], [" вы", "зывать"], [" дол", "го"], [" же", "ле"], [" знач", "ения"], [" изб", "ежать"], [" интер", "нет"], [" исход", "ный"], [" ка", "честве"], [" кон", "фигура"], [" которо", "й"], [" люд", "ьми"], [" мет", "ри"], [" ми", "р"], [" о", "фи"], [" опы", "та"], [" п", "ара"], [" п", "ис"], [" п", "олож"], [" передаёт", "ся"], [" по", "кры"], [" по", "куп"], [" по", "нять"], [" пов", "ли"], [" про", "гно"], [" про", "ст"], [" р", "ед"], [" раз", "мер"], [" рас", "с"], [" с", "мер"], [" созд", "ание"], [" сохраня", "ются"], [" т", "аб"], [" т", "ран"], [" то", "пли"], [" тор", "мо"], [" у", "бед"], [" у", "ме"], [" фин", "ан"], [" ч", "ув"], [" челов", "ек"], [" э", "мо"], ["B", "SD"], ["a", "i"], ["ele", "gram"], ["ge", "t"], ["mo", "d"], ["ree", "BSD"], ["s", "e"], ["Как", "ие"], ["Пере", "пис"], ["Перепис", "ка"], ["а", "у"], ["б", "ло"], ["во", "е"], ["ги", "е"], ["гра", "фи"], ["ел", "ле"], ["ен", "д"], ["ен", "ти"], ["ер", "в"], ["ж", "ем"], ["з", "ать"], ["из", "нес"], ["ист", "ри"], ["итель", "ное"], ["л", "ении"], ["ло", "й"], ["н", "ам"], ["ни", "будь"], ["ни", "шь"], ["од", "и"], ["ос", "о"], ["р", "од"], ["ст", "ат"], ["ств", "ия"], ["ч", "ный"], ["щ", "ит"], ["ще", "ство"], ["ёт", "ся"], [" ", "8"], [" ", "9"], [" in", "stall"], [" Д", "об"], [" атом", "ов"], [" б", "ан"], [" б", "ог"], [" вме", "сте"], [" все", "гда"], [" г", "ал"], [" дел", "ает"], [" до", "став"], [" за", "ра"], [" знач", "ение"], [" иде", "и"], [" изуч", "ения"], [" использов", "ание"], [" л", "ек"], [" люб", "ой"], [" м", "ень"], [" мас", "ла"], [" ми", "ни"], [" мил", "ли"], [" мы", "сли"], [" н", "едо"], [" н", "из"], [" нов", "ые"], [" о", "кру"], [" о", "но"], [" отс", "ут"], [" прав", "и"], [" про", "с"], [" профес", "сион"], [" рас", "се"], [" ре", "ги"], [" с", "ц"], [" ск", "оро"], [" те", "кс"], [" у", "да"], [" у", "ст"], [" ут", "вер"], [" ф", "ра"], [" чис", "ел"], [" э", "тим"], ["A", "P"], ["D", "E"]]}